<unk>	0
<s>	0
</s>	0
то	-0
▁н	-1
▁п	-2
▁с	-3
▁в	-4
▁м	-5
ть	-6
▁о	-7
▁т	-8
ен	-9
ра	-10
ро	-11
но	-12
▁д	-13
▁по	-14
▁не	-15
ко	-16
го	-17
ли	-18
ет	-19
▁ч	-20
▁и	-21
ст	-22
▁б	-23
ка	-24
ер	-25
ла	-26
▁на	-27
на	-28
▁з	-29
ни	-30
ри	-31
▁что	-32
во	-33
▁Н	-34
ва	-35
ем	-36
▁у	-37
ль	-38
да	-39
ло	-40
▁э	-41
▁П	-42
ся	-43
▁Я	-44
▁Д	-45
▁е	-46
▁Т	-47
▁я	-48
те	-49
▁В	-50
де	-51
▁это	-52
ре	-53
ди	-54
▁О	-55
▁М	-56
▁за	-57
не	-58
▁бы	-59
хо	-60
сь	-61
▁С	-62
▁мо	-63
же	-64
та	-65
шь	-66
▁К	-67
ти	-68
ма	-69
ны	-70
ак	-71
ви	-72
▁ко	-73
▁ты	-74
еб	-75
ле	-76
▁к	-77
▁про	-78
▁до	-79
мо	-80
▁то	-81
▁ра	-82
▁Э	-83
ру	-84
▁вы	-85
ас	-86
▁ка	-87
бо	-88
▁По	-89
чи	-90
▁И	-91
▁вс	-92
ки	-93
лу	-94
за	-95
▁Да	-96
жи	-97
до	-98
ми	-99
▁Ч	-100
ени	-101
▁от	-102
▁при	-103
ей	-104
▁теб	-105
▁А	-106
▁хо	-107
ля	-108
ста	-109
▁со	-110
ду	-111
▁во	-112
▁Ты	-113
еня	-114
ну	-115
сто	-116
▁зна	-117
▁Это	-118
ешь	-119
▁го	-120
▁Б	-121
ам	-122
▁меня	-123
лю	-124
ше	-125
по	-126
ве	-127
гда	-128
▁но	-129
ши	-130
▁ни	-131
ку	-132
▁все	-133
би	-134
▁так	-135
▁де	-136
▁У	-137
сть	-138
га	-139
▁Что	-140
▁как	-141
ча	-142
сти	-143
уд	-144
жа	-145
ере	-146
▁мне	-147
▁об	-148
ня	-149
че	-150
си	-151
▁из	-152
▁Не	-153
▁он	-154
▁а	-155
ень	-156
му	-157
ры	-158
ша	-159
ться	-160
▁З	-161
▁мы	-162
▁да	-163
▁Х	-164
жно	-165
▁г	-166
▁его	-167
▁тебя	-168
▁бо	-169
бы	-170
ме	-171
сли	-172
вер	-173
каза	-174
▁Л	-175
▁Р	-176
▁Г	-177
ему	-178
па	-179
▁Нет	-180
ете	-181
▁раз	-182
ря	-183
со	-184
лько	-185
▁Е	-186
▁Вы	-187
ще	-188
▁Но	-189
ар	-190
пи	-191
гу	-192
чно	-193
ума	-194
▁же	-195
дно	-196
ци	-197
шо	-198
▁Он	-199
льно	-200
ный	-201
▁пре	-202
▁ве	-203
щи	-204
▁ма	-205
▁Мы	-206
ву	-207
жет	-208
▁сво	-209
▁дол	-210
тся	-211
▁тебе	-212
ги	-213
вори	-214
жен	-215
▁ви	-216
▁Мо	-217
вы	-218
кой	-219
▁лю	-220
▁ми	-221
ту	-222
са	-223
дела	-224
се	-225
рав	-226
▁На	-227
▁Ко	-228
▁ре	-229
▁под	-230
▁чтобы	-231
▁хоч	-232
▁ну	-233
▁нет	-234
▁буд	-235
▁нас	-236
▁Хо	-237
▁Во	-238
лы	-239
вать	-240
▁сказа	-241
пас	-242
его	-243
▁ли	-244
лся	-245
▁Ну	-246
рошо	-247
▁те	-248
▁дела	-249
десь	-250
▁ва	-251
▁тво	-252
▁Про	-253
▁ме	-254
ке	-255
▁та	-256
ез	-257
▁дума	-258
▁она	-259
ной	-260
▁дру	-261
▁Как	-262
ение	-263
ты	-264
ется	-265
▁жи	-266
▁есть	-267
▁был	-268
вет	-269
▁для	-270
ного	-271
▁знаю	-272
▁кото	-273
▁То	-274
▁пос	-275
▁если	-276
вай	-277
спо	-278
▁сдела	-279
рем	-280
▁ста	-281
▁здесь	-282
сс	-283
ерь	-284
▁было	-285
ходи	-286
ения	-287
▁просто	-288
об	-289
нима	-290
це	-291
ком	-292
▁боль	-293
▁когда	-294
жу	-295
▁говори	-296
рави	-297
▁вас	-298
ют	-299
тра	-300
▁пере	-301
ные	-302
ды	-303
ан	-304
▁они	-305
▁При	-306
ная	-307
▁вер	-308
▁оста	-309
▁ф	-310
▁Так	-311
▁За	-312
чему	-313
▁бу	-314
зо	-315
про	-316
▁только	-317
▁быть	-318
▁всё	-319
▁могу	-320
нь	-321
▁Она	-322
пу	-323
▁си	-324
ха	-325
ца	-326
тому	-327
мот	-328
▁рабо	-329
чень	-330
час	-331
ство	-332
▁будет	-333
зи	-334
▁слу	-335
▁са	-336
ща	-337
лось	-338
▁Мне	-339
ски	-340
мер	-341
енно	-342
▁сто	-343
▁па	-344
зна	-345
ибо	-346
он	-347
▁их	-348
пе	-349
▁врем	-350
▁Если	-351
чего	-352
пасибо	-353
▁себ	-354
▁ту	-355
лет	-356
▁Ф	-357
ят	-358
йте	-359
▁воз	-360
тель	-361
▁ш	-362
ейчас	-363
▁чем	-364
▁уже	-365
зы	-366
лись	-367
удь	-368
▁кто	-369
▁Бо	-370
ба	-371
чь	-372
▁Ка	-373
▁Ни	-374
▁помо	-375
дин	-376
кто	-377
бе	-378
▁эти	-379
ние	-380
▁ку	-381
юсь	-382
лась	-383
▁еще	-384
ери	-385
▁вам	-386
ена	-387
▁че	-388
▁От	-389
▁этого	-390
▁1	-391
▁очень	-392
гра	-393
▁хочу	-394
▁им	-395
дь	-396
▁До	-397
▁уби	-398
▁Хорошо	-399
▁х	-400
▁нужно	-401
▁может	-402
▁была	-403
бой	-404
▁Они	-405
перь	-406
ско	-407
▁этом	-408
су	-409
▁нам	-410
▁Ма	-411
▁там	-412
ром	-413
ор	-414
▁ее	-415
им	-416
сте	-417
ных	-418
▁ж	-419
▁Вот	-420
▁или	-421
▁долж	-422
ём	-423
луч	-424
шу	-425
ств	-426
▁Спасибо	-427
▁ро	-428
▁Ми	-429
▁которы	-430
ска	-431
▁Все	-432
будь	-433
жешь	-434
йти	-435
▁чу	-436
тельно	-437
ным	-438
▁хоте	-439
вно	-440
лове	-441
▁Ра	-442
том	-443
▁сейчас	-444
▁бе	-445
сту	-446
▁пред	-447
йд	-448
▁Ла	-449
▁больше	-450
ров	-451
щё	-452
нт	-453
юда	-454
▁Го	-455
▁се	-456
▁буду	-457
▁жиз	-458
ния	-459
▁му	-460
зво	-461
лен	-462
▁пар	-463
▁без	-464
▁её	-465
▁Зна	-466
▁су	-467
▁день	-468
сно	-469
▁мой	-470
вал	-471
▁хорошо	-472
стре	-473
▁ничего	-474
▁луч	-475
дите	-476
▁Почему	-477
▁пу	-478
бира	-479
мы	-480
▁время	-481
бу	-482
фи	-483
▁нико	-484
гла	-485
тов	-486
▁после	-487
чит	-488
▁пи	-489
ству	-490
▁себя	-491
▁прав	-492
мен	-493
▁ле	-494
ит	-495
▁Эй	-496
зу	-497
дел	-498
▁жен	-499
▁Давай	-500
▁пер	-501
▁ру	-502
▁надо	-503
▁сказал	-504
▁ему	-505
мотри	-506
вя	-507
дня	-508
▁Ш	-509
▁само	-510
▁челове	-511
кра	-512
бра	-513
▁тоже	-514
▁работа	-515
▁где	-516
нибудь	-517
▁полу	-518
▁должен	-519
▁смо	-520
ерт	-521
кое	-522
ное	-523
▁расс	-524
▁ещё	-525
▁наш	-526
▁прои	-527
кры	-528
▁пока	-529
нечно	-530
луй	-531
▁вз	-532
▁него	-533
ети	-534
стро	-535
▁того	-536
ять	-537
▁кон	-538
▁пла	-539
чу	-540
▁Привет	-541
▁Ладно	-542
луша	-543
ков	-544
ёт	-545
▁Дж	-546
▁2	-547
▁Кто	-548
ряд	-549
▁стра	-550
лем	-551
ник	-552
жалуй	-553
▁знаешь	-554
стер	-555
▁сле	-556
▁сло	-557
▁были	-558
егодня	-559
их	-560
стви	-561
можно	-562
▁понима	-563
став	-564
жалуйста	-565
▁вот	-566
▁ска	-567
▁тобой	-568
кая	-569
жем	-570
▁этот	-571
вали	-572
▁Со	-573
ную	-574
▁Пос	-575
вой	-576
▁час	-577
ыта	-578
▁име	-579
▁думаю	-580
▁никогда	-581
эр	-582
▁Ва	-583
кон	-584
рю	-585
ства	-586
▁даже	-587
дер	-588
▁мог	-589
▁теперь	-590
▁сказать	-591
▁чтото	-592
▁тут	-593
ью	-594
00	-595
▁ла	-596
▁Те	-597
▁мной	-598
дни	-599
▁ком	-600
ции	-601
▁ско	-602
гля	-603
тив	-604
ин	-605
▁Может	-606
▁верну	-607
▁Из	-608
дума	-609
тер	-610
лли	-611
▁лучше	-612
шло	-613
▁хочешь	-614
▁потому	-615
стоя	-616
▁почему	-617
ствен	-618
вый	-619
▁поряд	-620
говори	-621
что	-622
▁сделать	-623
ню	-624
▁одно	-625
ья	-626
прав	-627
ман	-628
эн	-629
вить	-630
▁поня	-631
▁позво	-632
▁Дже	-633
нут	-634
дать	-635
▁Когда	-636
▁ис	-637
▁лет	-638
вает	-639
нов	-640
▁порядке	-641
ней	-642
ран	-643
▁дело	-644
▁ст	-645
чем	-646
кого	-647
▁много	-648
▁должны	-649
▁сюда	-650
дешь	-651
нова	-652
▁подо	-653
нет	-654
▁реб	-655
блю	-656
▁Ж	-657
деть	-658
шел	-659
еха	-660
▁Прости	-661
▁собира	-662
рой	-663
ене	-664
▁кра	-665
рт	-666
▁хоро	-667
▁сам	-668
▁один	-669
▁нем	-670
▁рас	-671
лыша	-672
шка	-673
ном	-674
▁Где	-675
▁делать	-676
▁всегда	-677
▁Теб	-678
▁Вс	-679
ент	-680
▁сегодня	-681
шли	-682
▁получи	-683
▁Па	-684
▁ц	-685
сы	-686
нее	-687
▁Ро	-688
ция	-689
цу	-690
▁случи	-691
▁Просто	-692
▁гла	-693
дей	-694
нить	-695
▁можешь	-696
▁бра	-697
▁ним	-698
▁чув	-699
▁уви	-700
ющи	-701
▁ей	-702
▁голо	-703
ходит	-704
▁пра	-705
сси	-706
жд	-707
▁Ви	-708
▁узна	-709
▁сы	-710
▁спо	-711
▁жизнь	-712
▁сп	-713
▁пол	-714
▁друго	-715
хи	-716
▁хотел	-717
чита	-718
▁моя	-719
жды	-720
дить	-721
ено	-722
ните	-723
▁них	-724
▁этим	-725
▁Са	-726
▁ней	-727
▁ба	-728
▁люби	-729
чка	-730
▁вме	-731
▁том	-732
рова	-733
▁сем	-734
мой	-735
▁ид	-736
дна	-737
▁Дума	-738
▁ду	-739
▁пыта	-740
▁нача	-741
▁нуж	-742
шком	-743
цы	-744
лушай	-745
ктор	-746
вра	-747
▁обра	-748
▁всего	-749
нг	-750
цо	-751
▁жа	-752
ший	-753
ерез	-754
▁правда	-755
▁ведь	-756
▁ус	-757
пре	-758
▁уж	-759
▁Пре	-760
лишком	-761
клю	-762
▁всех	-763
тя	-764
▁ло	-765
▁такой	-766
дом	-767
▁проб	-768
пусти	-769
ить	-770
пер	-771
▁чего	-772
▁Конечно	-773
▁себе	-774
при	-775
стра	-776
▁маши	-777
▁пло	-778
йся	-779
▁ин	-780
жете	-781
фе	-782
дя	-783
рет	-784
кс	-785
▁Ве	-786
▁нрави	-787
пы	-788
вая	-789
▁свя	-790
дит	-791
тно	-792
ешься	-793
▁3	-794
▁увер	-795
▁Тебе	-796
▁такое	-797
нии	-798
ил	-799
дишь	-800
жется	-801
чет	-802
▁который	-803
▁Раз	-804
▁Всё	-805
▁доро	-806
чина	-807
рь	-808
▁гово	-809
▁испо	-810
▁ваш	-811
▁этой	-812
▁Потому	-813
дол	-814
эй	-815
дели	-816
▁свою	-817
▁моей	-818
▁случа	-819
тец	-820
ются	-821
▁Ку	-822
▁можно	-823
▁женщи	-824
жда	-825
▁Де	-826
соб	-827
▁пе	-828
▁Тогда	-829
тите	-830
зад	-831
нно	-832
рен	-833
нуть	-834
▁должна	-835
▁тем	-836
жать	-837
▁проблем	-838
▁ша	-839
▁поговори	-840
проси	-841
зыва	-842
пла	-843
▁Теперь	-844
▁дет	-845
▁встре	-846
лично	-847
▁немного	-848
лаго	-849
▁случилось	-850
▁твой	-851
▁Воз	-852
▁Та	-853
▁человек	-854
обще	-855
▁эту	-856
▁дей	-857
▁слишком	-858
шего	-859
▁через	-860
мотре	-861
йду	-862
▁зо	-863
▁сделал	-864
вати	-865
ский	-866
емся	-867
▁потом	-868
этому	-869
▁Боже	-870
▁пря	-871
сем	-872
▁Ско	-873
ёл	-874
▁сказала	-875
лей	-876
она	-877
▁друг	-878
▁Ли	-879
▁поли	-880
▁кого	-881
тесь	-882
▁назад	-883
▁сэр	-884
▁вместе	-885
▁Только	-886
яс	-887
прави	-888
▁похо	-889
шла	-890
ут	-891
▁тогда	-892
▁значит	-893
▁можем	-894
мени	-895
зя	-896
той	-897
нд	-898
част	-899
▁возможно	-900
ких	-901
▁обо	-902
▁слыша	-903
▁место	-904
бер	-905
писа	-906
▁це	-907
▁наши	-908
▁людей	-909
▁закон	-910
кий	-911
▁тру	-912
сле	-913
▁ум	-914
▁жизни	-915
▁свои	-916
▁гру	-917
▁пом	-918
▁сер	-919
ложи	-920
▁уда	-921
шься	-922
шая	-923
▁сов	-924
нови	-925
▁дома	-926
▁обе	-927
льше	-928
▁Изви	-929
▁вопро	-930
цию	-931
▁Пока	-932
▁ди	-933
▁Лю	-934
▁два	-935
▁муж	-936
▁чи	-937
▁Мар	-938
вто	-939
втра	-940
▁убий	-941
▁Знаешь	-942
▁теле	-943
▁которые	-944
▁доста	-945
ён	-946
нтере	-947
▁ут	-948
жду	-949
▁Нам	-950
вое	-951
▁следу	-952
▁люди	-953
ника	-954
▁вол	-955
▁Пере	-956
▁всем	-957
▁прави	-958
рма	-959
▁Госпо	-960
ении	-961
▁нравится	-962
▁помочь	-963
▁снова	-964
▁Пожалуйста	-965
▁знать	-966
ступ	-967
▁кро	-968
▁видел	-969
вые	-970
вед	-971
▁прекра	-972
▁любо	-973
ены	-974
ваться	-975
▁изза	-976
▁пожалуйста	-977
▁сви	-978
▁Бы	-979
нс	-980
род	-981
▁кое	-982
▁пор	-983
▁хочет	-984
▁Ничего	-985
▁прид	-986
нец	-987
вез	-988
▁c	-989
▁5	-990
▁проис	-991
▁объ	-992
▁игра	-993
▁домой	-994
лага	-995
▁мои	-996
ружи	-997
▁смер	-998
ление	-999
ятно	-1000
▁спа	-1001
▁понимаю	-1002
▁Ска	-1003
▁делаешь	-1004
▁отец	-1005
мся	-1006
куда	-1007
▁Бе	-1008
ными	-1009
рое	-1010
▁ладно	-1011
▁времени	-1012
▁тех	-1013
вала	-1014
▁лишь	-1015
▁давай	-1016
▁действи	-1017
вля	-1018
▁подума	-1019
ге	-1020
▁Си	-1021
ёр	-1022
тан	-1023
сон	-1024
▁коро	-1025
▁ночь	-1026
лень	-1027
▁Его	-1028
верь	-1029
▁говорил	-1030
нем	-1031
так	-1032
▁счита	-1033
▁дер	-1034
▁своей	-1035
▁твоя	-1036
▁найти	-1037
▁чер	-1038
вод	-1039
▁думаешь	-1040
▁га	-1041
▁сра	-1042
▁реши	-1043
дал	-1044
жение	-1045
▁тот	-1046
▁деньги	-1047
тить	-1048
▁одна	-1049
▁4	-1050
▁думал	-1051
щу	-1052
лин	-1053
▁деву	-1054
▁стоит	-1055
ие	-1056
вари	-1057
▁люблю	-1058
чки	-1059
▁бро	-1060
кие	-1061
казать	-1062
▁други	-1063
▁зво	-1064
▁Ага	-1065
лом	-1066
фор	-1067
▁Есть	-1068
▁поговорить	-1069
▁эта	-1070
▁знаете	-1071
сты	-1072
▁сек	-1073
▁боле	-1074
▁поз	-1075
▁исто	-1076
▁парень	-1077
гово	-1078
аль	-1079
чить	-1080
▁Зачем	-1081
ставля	-1082
▁Вам	-1083
▁деле	-1084
стно	-1085
▁Лу	-1086
▁выгля	-1087
ход	-1088
стави	-1089
ально	-1090
рти	-1091
▁сме	-1092
▁Думаю	-1093
▁Прав	-1094
▁Ри	-1095
▁конечно	-1096
▁знает	-1097
▁точно	-1098
тор	-1099
▁знал	-1100
▁Доб	-1101
▁исполь	-1102
лый	-1103
▁говорить	-1104
▁потер	-1105
▁три	-1106
ваю	-1107
▁Или	-1108
▁наде	-1109
▁спасибо	-1110
ск	-1111
эм	-1112
▁Сейчас	-1113
▁гото	-1114
▁будешь	-1115
▁будем	-1116
стр	-1117
дова	-1118
▁моего	-1119
▁пода	-1120
▁ответ	-1121
рая	-1122
▁хотела	-1123
▁шко	-1124
▁Ле	-1125
▁Правда	-1126
кла	-1127
чески	-1128
▁ваши	-1129
▁неско	-1130
▁ника	-1131
пол	-1132
▁кру	-1133
▁мистер	-1134
▁сторо	-1135
▁Джей	-1136
три	-1137
рую	-1138
▁веч	-1139
▁глу	-1140
▁над	-1141
нять	-1142
▁Простите	-1143
▁какой	-1144
бли	-1145
▁чтонибудь	-1146
▁тре	-1147
▁t	-1148
▁Подо	-1149
▁происходит	-1150
▁друз	-1151
▁возь	-1152
▁прямо	-1153
▁пора	-1154
▁спи	-1155
an	-1156
нок	-1157
ности	-1158
▁отс	-1159
лагода	-1160
▁иде	-1161
▁беспо	-1162
▁би	-1163
▁ча	-1164
▁забы	-1165
▁навер	-1166
▁минут	-1167
сла	-1168
▁вами	-1169
бота	-1170
роде	-1171
er	-1172
драв	-1173
▁против	-1174
▁Мой	-1175
▁туда	-1176
чешь	-1177
▁перед	-1178
▁Ме	-1179
шки	-1180
▁вра	-1181
▁Здесь	-1182
▁плохо	-1183
▁защи	-1184
чку	-1185
льчи	-1186
▁кажется	-1187
▁Май	-1188
▁куда	-1189
сом	-1190
▁ти	-1191
стью	-1192
▁завтра	-1193
▁чём	-1194
ления	-1195
▁Слушай	-1196
▁дом	-1197
ватит	-1198
ний	-1199
▁отно	-1200
▁свой	-1201
ственно	-1202
вести	-1203
▁совсем	-1204
вь	-1205
▁фи	-1206
▁Меня	-1207
ден	-1208
▁Ло	-1209
▁расска	-1210
▁помощ	-1211
▁вообще	-1212
in	-1213
▁самом	-1214
▁ки	-1215
▁откры	-1216
▁ради	-1217
▁прошло	-1218
лл	-1219
▁Ц	-1220
вут	-1221
▁малень	-1222
кую	-1223
▁занима	-1224
▁отсюда	-1225
рей	-1226
▁соб	-1227
▁должно	-1228
пить	-1229
ской	-1230
▁действительно	-1231
рого	-1232
рок	-1233
▁произо	-1234
точно	-1235
ений	-1236
▁говорит	-1237
▁согла	-1238
▁можете	-1239
дж	-1240
мотреть	-1241
▁нужен	-1242
вин	-1243
▁ше	-1244
ждый	-1245
▁Значит	-1246
▁Иди	-1247
▁Пу	-1248
чный	-1249
▁Джо	-1250
кру	-1251
▁истори	-1252
▁интере	-1253
▁иг	-1254
▁чувству	-1255
▁мою	-1256
льзя	-1257
ята	-1258
▁будут	-1259
▁нужна	-1260
шие	-1261
частли	-1262
▁несколько	-1263
▁работу	-1264
рд	-1265
чера	-1266
▁встреча	-1267
▁нее	-1268
пом	-1269
дем	-1270
▁меся	-1271
▁твоей	-1272
▁Там	-1273
▁мама	-1274
▁пой	-1275
шение	-1276
▁сооб	-1277
▁настоя	-1278
▁ктото	-1279
вле	-1280
▁оши	-1281
▁ново	-1282
жде	-1283
правля	-1284
▁тер	-1285
▁имя	-1286
шения	-1287
▁смы	-1288
нил	-1289
▁Отлично	-1290
мина	-1291
▁хотите	-1292
▁Скажи	-1293
▁нами	-1294
▁Ди	-1295
▁поч	-1296
торы	-1297
▁повер	-1298
▁ад	-1299
▁Вер	-1300
йдем	-1301
▁офи	-1302
ровать	-1303
▁ужас	-1304
▁моло	-1305
▁жаль	-1306
▁неде	-1307
ющий	-1308
ял	-1309
жал	-1310
ками	-1311
▁равно	-1312
▁фо	-1313
▁коечто	-1314
▁способ	-1315
▁норма	-1316
▁Ха	-1317
дет	-1318
пера	-1319
▁серь	-1320
ёрт	-1321
ением	-1322
▁послед	-1323
кро	-1324
▁Возможно	-1325
сов	-1326
доро	-1327
▁Разве	-1328
▁пот	-1329
▁ак	-1330
▁Даже	-1331
▁Для	-1332
вым	-1333
▁Кар	-1334
▁Су	-1335
▁л	-1336
кан	-1337
▁комна	-1338
пло	-1339
▁телеф	-1340
▁провер	-1341
▁самы	-1342
▁никто	-1343
▁слуша	-1344
▁Мистер	-1345
▁ри	-1346
ньше	-1347
▁тра	-1348
▁семь	-1349
▁коман	-1350
▁уверен	-1351
▁Очень	-1352
▁серд	-1353
▁поло	-1354
шёл	-1355
ху	-1356
зе	-1357
▁умер	-1358
▁побе	-1359
ван	-1360
ёшь	-1361
▁Подож	-1362
▁закончи	-1363
тия	-1364
ению	-1365
▁Ба	-1366
▁гра	-1367
▁убе	-1368
▁кла	-1369
▁Мэ	-1370
сить	-1371
▁Этот	-1372
▁Итак	-1373
вых	-1374
▁Им	-1375
▁продол	-1376
кт	-1377
стве	-1378
▁глаза	-1379
нес	-1380
▁идти	-1381
▁заня	-1382
▁бли	-1383
от	-1384
▁Тво	-1385
▁ос	-1386
▁могли	-1387
ская	-1388
▁именно	-1389
▁Мак	-1390
▁мат	-1391
▁года	-1392
▁Ре	-1393
▁говоря	-1394
▁иди	-1395
стя	-1396
▁более	-1397
▁мать	-1398
▁этих	-1399
▁всю	-1400
бро	-1401
▁кем	-1402
чать	-1403
▁Похо	-1404
щее	-1405
уже	-1406
держи	-1407
▁момен	-1408
нись	-1409
▁Посмотри	-1410
▁обы	-1411
▁Давайте	-1412
▁мальчи	-1413
ётся	-1414
▁един	-1415
стрети	-1416
▁Се	-1417
▁твои	-1418
ница	-1419
▁дня	-1420
дут	-1421
▁Ти	-1422
▁уни	-1423
▁поэтому	-1424
▁говорю	-1425
▁смогу	-1426
етесь	-1427
▁зовут	-1428
слу	-1429
▁Моя	-1430
▁раньше	-1431
▁видеть	-1432
ред	-1433
ского	-1434
▁другой	-1435
щей	-1436
лле	-1437
▁понял	-1438
яви	-1439
ках	-1440
▁вели	-1441
лло	-1442
▁измени	-1443
▁учи	-1444
▁совер	-1445
еты	-1446
▁встрети	-1447
йдет	-1448
▁госпо	-1449
ум	-1450
▁могут	-1451
цев	-1452
or	-1453
▁Джи	-1454
▁сама	-1455
льный	-1456
▁скоро	-1457
▁Джон	-1458
яза	-1459
гая	-1460
▁спас	-1461
▁человека	-1462
▁важно	-1463
▁весь	-1464
▁своего	-1465
нишь	-1466
ставить	-1467
▁виду	-1468
ун	-1469
▁ули	-1470
▁счастли	-1471
йтесь	-1472
▁10	-1473
▁дви	-1474
▁Похоже	-1475
дой	-1476
чала	-1477
опас	-1478
▁Хочешь	-1479
ток	-1480
лан	-1481
▁Рас	-1482
енави	-1483
▁большо	-1484
ou	-1485
ники	-1486
▁месте	-1487
шку	-1488
▁вос	-1489
▁После	-1490
▁сла	-1491
враща	-1492
лая	-1493
чат	-1494
вают	-1495
кти	-1496
on	-1497
▁сколько	-1498
ов	-1499
▁Помо	-1500
▁Вас	-1501
▁спра	-1502
чение	-1503
▁Ста	-1504
▁друзья	-1505
цей	-1506
▁Смотри	-1507
щения	-1508
▁6	-1509
▁вещи	-1510
мет	-1511
▁вижу	-1512
▁уго	-1513
▁убить	-1514
▁такая	-1515
воз	-1516
▁Нас	-1517
▁неё	-1518
▁попа	-1519
▁слова	-1520
шей	-1521
дам	-1522
нул	-1523
▁кар	-1524
лов	-1525
▁призна	-1526
▁ря	-1527
чен	-1528
▁начина	-1529
▁жить	-1530
▁этому	-1531
▁Сто	-1532
▁между	-1533
▁ор	-1534
рый	-1535
▁спроси	-1536
дравству	-1537
нер	-1538
▁будто	-1539
▁Ю	-1540
бор	-1541
▁ю	-1542
▁дево	-1543
▁попро	-1544
щение	-1545
▁вопрос	-1546
▁оно	-1547
пере	-1548
▁готов	-1549
▁думала	-1550
▁нормально	-1551
▁тя	-1552
▁долго	-1553
пра	-1554
стой	-1555
шно	-1556
дов	-1557
зда	-1558
▁Куда	-1559
дил	-1560
хра	-1561
▁использо	-1562
▁собой	-1563
▁Под	-1564
лить	-1565
▁прости	-1566
бь	-1567
▁говоришь	-1568
щем	-1569
▁которая	-1570
▁Извините	-1571
▁скажу	-1572
рить	-1573
▁заме	-1574
▁Дай	-1575
▁спе	-1576
сторо	-1577
▁волну	-1578
▁сын	-1579
сит	-1580
▁Прошу	-1581
сил	-1582
чная	-1583
▁смотри	-1584
▁захо	-1585
▁мам	-1586
лез	-1587
шим	-1588
▁Без	-1589
щий	-1590
гна	-1591
▁нельзя	-1592
▁могла	-1593
▁стать	-1594
ваешь	-1595
▁Сколько	-1596
▁посмотри	-1597
▁объяс	-1598
▁пару	-1599
▁лег	-1600
▁a	-1601
▁Поэтому	-1602
▁опас	-1603
▁Можно	-1604
▁отца	-1605
▁мир	-1606
брать	-1607
▁Га	-1608
▁вой	-1609
▁авто	-1610
▁причи	-1611
▁Бу	-1612
дим	-1613
вую	-1614
▁Об	-1615
▁Пи	-1616
▁жена	-1617
рик	-1618
тон	-1619
обра	-1620
▁Надо	-1621
▁Че	-1622
▁отве	-1623
▁случае	-1624
▁Дер	-1625
▁своих	-1626
раб	-1627
▁нес	-1628
▁безопас	-1629
рее	-1630
чество	-1631
▁Кэ	-1632
▁такие	-1633
говари	-1634
▁слы	-1635
▁довер	-1636
ших	-1637
▁Нико	-1638
фа	-1639
▁каждый	-1640
▁Ки	-1641
дний	-1642
▁ребята	-1643
щая	-1644
▁единствен	-1645
▁кни	-1646
▁Господи	-1647
▁s	-1648
жить	-1649
▁посту	-1650
▁смерти	-1651
▁преступ	-1652
лия	-1653
▁шо	-1654
▁брат	-1655
кус	-1656
he	-1657
▁оп	-1658
▁верно	-1659
▁обяза	-1660
▁сказали	-1661
▁руки	-1662
▁Бра	-1663
▁знаем	-1664
▁Доктор	-1665
▁ры	-1666
▁сна	-1667
▁зем	-1668
▁уста	-1669
▁вся	-1670
▁краси	-1671
▁Поня	-1672
▁дене	-1673
емо	-1674
▁твою	-1675
▁мину	-1676
▁кли	-1677
ha	-1678
ёз	-1679
▁тро	-1680
▁фото	-1681
▁стре	-1682
▁слышал	-1683
▁T	-1684
▁видела	-1685
▁сол	-1686
ствовать	-1687
▁детей	-1688
▁отправи	-1689
ссис	-1690
▁Прекра	-1691
▁гор	-1692
▁хоть	-1693
▁Кла	-1694
дну	-1695
▁Мама	-1696
▁нашли	-1697
▁остави	-1698
▁мерт	-1699
щего	-1700
▁убил	-1701
ногда	-1702
▁Оста	-1703
▁зачем	-1704
ким	-1705
▁запи	-1706
гать	-1707
▁произошло	-1708
▁женщина	-1709
▁свет	-1710
▁подру	-1711
ним	-1712
▁Дэ	-1713
ок	-1714
▁рядом	-1715
▁свобо	-1716
▁понимаешь	-1717
▁Здравству	-1718
▁Никто	-1719
▁быстро	-1720
▁нау	-1721
▁внут	-1722
▁имею	-1723
▁Сегодня	-1724
воль	-1725
казал	-1726
▁кре	-1727
▁одного	-1728
ждения	-1729
вание	-1730
▁Би	-1731
сса	-1732
▁увидеть	-1733
чает	-1734
ходить	-1735
ян	-1736
▁помощь	-1737
вого	-1738
▁достаточно	-1739
▁нашей	-1740
▁часть	-1741
▁Ст	-1742
▁бан	-1743
жения	-1744
▁сделала	-1745
рко	-1746
▁которую	-1747
▁Чу	-1748
▁почти	-1749
вели	-1750
▁жив	-1751
ские	-1752
ставь	-1753
▁написа	-1754
тят	-1755
▁зам	-1756
езно	-1757
▁Ан	-1758
док	-1759
ета	-1760
лагаю	-1761
▁друга	-1762
ехали	-1763
▁обеща	-1764
еры	-1765
▁S	-1766
▁скажи	-1767
▁7	-1768
ленно	-1769
▁похоже	-1770
▁знала	-1771
▁Извини	-1772
льные	-1773
▁Чего	-1774
▁самое	-1775
▁оружи	-1776
▁зат	-1777
▁тю	-1778
▁Пер	-1779
▁жела	-1780
▁такого	-1781
▁Фи	-1782
▁20	-1783
ехать	-1784
▁меч	-1785
дание	-1786
▁пон	-1787
▁говорила	-1788
дорово	-1789
▁ненави	-1790
▁Черт	-1791
▁Какой	-1792
▁кри	-1793
▁M	-1794
ar	-1795
вается	-1796
▁Пошли	-1797
▁пожа	-1798
▁делает	-1799
еди	-1800
▁ску	-1801
▁уг	-1802
▁секу	-1803
▁милли	-1804
нию	-1805
▁называ	-1806
▁вла	-1807
▁Ру	-1808
▁Точно	-1809
ом	-1810
▁случай	-1811
▁ошиб	-1812
▁C	-1813
бери	-1814
лять	-1815
▁компа	-1816
▁8	-1817
форма	-1818
▁Навер	-1819
▁вернуться	-1820
▁парня	-1821
▁нужны	-1822
▁работать	-1823
▁денег	-1824
▁люб	-1825
▁пойти	-1826
▁связа	-1827
▁стал	-1828
▁насчет	-1829
▁возьми	-1830
▁Бар	-1831
▁внима	-1832
теля	-1833
нит	-1834
▁ква	-1835
▁иска	-1836
стрее	-1837
лушайте	-1838
▁собираюсь	-1839
▁доктор	-1840
▁права	-1841
▁проблема	-1842
раз	-1843
▁ог	-1844
▁Чтобы	-1845
▁твоего	-1846
пуска	-1847
▁моих	-1848
▁наз	-1849
▁изви	-1850
▁Наде	-1851
над	-1852
тим	-1853
▁неко	-1854
ровь	-1855
дания	-1856
дете	-1857
▁пои	-1858
▁родите	-1859
▁вто	-1860
ента	-1861
емы	-1862
▁Кри	-1863
▁Ше	-1864
▁узнать	-1865
▁сильно	-1866
езжа	-1867
▁пойду	-1868
лла	-1869
▁ночи	-1870
ников	-1871
▁A	-1872
▁смог	-1873
▁папа	-1874
▁ними	-1875
▁Еще	-1876
ерин	-1877
▁Послушай	-1878
▁дверь	-1879
▁своим	-1880
▁суще	-1881
▁машину	-1882
▁вчера	-1883
▁жерт	-1884
▁попроси	-1885
рон	-1886
▁прода	-1887
▁недо	-1888
▁успе	-1889
▁проблемы	-1890
нце	-1891
▁m	-1892
▁таким	-1893
▁9	-1894
▁первый	-1895
▁тому	-1896
▁дву	-1897
сен	-1898
▁ды	-1899
▁полно	-1900
▁аг	-1901
▁забо	-1902
▁Му	-1903
питан	-1904
en	-1905
стей	-1906
ходите	-1907
▁Подожди	-1908
▁тыся	-1909
▁лицо	-1910
▁места	-1911
▁устро	-1912
▁вашей	-1913
▁пона	-1914
вак	-1915
▁одной	-1916
▁Дол	-1917
▁позна	-1918
▁I	-1919
▁сердце	-1920
нный	-1921
▁пригла	-1922
▁разговари	-1923
▁предпо	-1924
▁моим	-1925
▁Ё	-1926
▁мужчи	-1927
▁Держи	-1928
чером	-1929
▁потеря	-1930
▁нач	-1931
из	-1932
▁останови	-1933
чёт	-1934
▁o	-1935
▁удо	-1936
▁дальше	-1937
▁Майк	-1938
конец	-1939
пил	-1940
▁шту	-1941
нтро	-1942
шен	-1943
пыта	-1944
▁спраши	-1945
▁номер	-1946
роятно	-1947
▁вроде	-1948
вольно	-1949
жит	-1950
▁w	-1951
рта	-1952
▁Пар	-1953
▁Хоро	-1954
▁оди	-1955
димся	-1956
▁понрави	-1957
▁благода	-1958
ствие	-1959
▁мило	-1960
нется	-1961
▁Нужно	-1962
пал	-1963
▁съ	-1964
▁закры	-1965
рэн	-1966
▁работает	-1967
▁Эта	-1968
▁Спо	-1969
графи	-1970
ехал	-1971
▁изве	-1972
▁находи	-1973
сло	-1974
▁мое	-1975
▁Ох	-1976
▁ваша	-1977
▁ребен	-1978
▁Позво	-1979
▁давно	-1980
чные	-1981
▁Папа	-1982
коми	-1983
▁сделали	-1984
▁ар	-1985
▁показа	-1986
мира	-1987
▁отли	-1988
▁одну	-1989
▁Откуда	-1990
▁возвраща	-1991
ское	-1992
▁пять	-1993
▁бер	-1994
▁часов	-1995
▁фа	-1996
▁Ар	-1997
▁уме	-1998
▁шу	-1999
▁Чтото	-2000
дят	-2001
вания	-2002
▁ночью	-2003
▁идея	-2004
▁подож	-2005
стань	-2006
▁Й	-2007
▁груп	-2008
▁тюрь	-2009
it	-2010
туа	-2011
▁Боль	-2012
дра	-2013
▁прошу	-2014
▁Надеюсь	-2015
▁утро	-2016
▁план	-2017
▁вечером	-2018
ой	-2019
▁19	-2020
▁информа	-2021
▁опера	-2022
▁Ах	-2023
ган	-2024
▁правильно	-2025
▁разве	-2026
гой	-2027
▁уди	-2028
кло	-2029
▁высо	-2030
▁запла	-2031
▁Луч	-2032
▁взять	-2033
▁сразу	-2034
зом	-2035
▁прово	-2036
▁каж	-2037
▁придется	-2038
▁уйти	-2039
▁момент	-2040
▁беспоко	-2041
▁оч	-2042
▁взгля	-2043
дох	-2044
▁взя	-2045
тил	-2046
дви	-2047
▁пов	-2048
▁голову	-2049
▁кому	-2050
▁город	-2051
▁пое	-2052
▁поза	-2053
▁ок	-2054
коло	-2055
▁лично	-2056
ледова	-2057
▁чувствую	-2058
▁оде	-2059
▁видели	-2060
ую	-2061
▁дерь	-2062
▁чита	-2063
▁вечер	-2064
▁черт	-2065
▁f	-2066
ницу	-2067
▁Сан	-2068
жин	-2069
▁ожи	-2070
▁виде	-2071
тен	-2072
▁матери	-2073
▁которой	-2074
▁говорят	-2075
рия	-2076
▁дере	-2077
▁которого	-2078
▁тол	-2079
▁неу	-2080
▁дней	-2081
▁отлично	-2082
▁последний	-2083
▁представля	-2084
▁зву	-2085
▁дети	-2086
▁принима	-2087
▁смысле	-2088
▁оказа	-2089
▁Одна	-2090
▁дра	-2091
пь	-2092
▁пси	-2093
▁Эн	-2094
нили	-2095
▁n	-2096
▁жу	-2097
ключи	-2098
▁поме	-2099
▁хватит	-2100
рода	-2101
нусь	-2102
▁Хватит	-2103
▁O	-2104
▁дво	-2105
▁утром	-2106
▁какая	-2107
▁помню	-2108
cH	-2109
нила	-2110
▁слово	-2111
▁Гар	-2112
▁вечерин	-2113
шать	-2114
▁Буд	-2115
▁оба	-2116
▁Зат	-2117
▁работы	-2118
▁прине	-2119
▁также	-2120
спе	-2121
йдём	-2122
▁Нью	-2123
▁понять	-2124
вока	-2125
▁имеет	-2126
ность	-2127
▁Здравствуйте	-2128
▁телефон	-2129
▁появи	-2130
▁ге	-2131
▁шанс	-2132
говор	-2133
▁выбра	-2134
▁осно	-2135
▁Эти	-2136
▁девушка	-2137
дель	-2138
▁необ	-2139
помина	-2140
дай	-2141
цен	-2142
▁Коро	-2143
▁укра	-2144
▁наверное	-2145
▁Джу	-2146
▁год	-2147
▁H	-2148
щен	-2149
▁доб	-2150
▁Чар	-2151
кар	-2152
▁15	-2153
шенно	-2154
▁Кра	-2155
нтер	-2156
▁Знаю	-2157
бора	-2158
▁дочь	-2159
▁секрет	-2160
▁Перевод	-2161
▁колле	-2162
▁выи	-2163
▁кры	-2164
новить	-2165
▁мно	-2166
▁той	-2167
▁кораб	-2168
леко	-2169
▁хотя	-2170
етыре	-2171
▁разре	-2172
тый	-2173
ских	-2174
FF	-2175
вался	-2176
▁Один	-2177
сок	-2178
▁ума	-2179
▁опре	-2180
наче	-2181
▁Ника	-2182
▁дать	-2183
▁напа	-2184
▁B	-2185
него	-2186
чик	-2187
▁нео	-2188
▁познакоми	-2189
▁клю	-2190
▁моз	-2191
▁y	-2192
▁Кажется	-2193
тье	-2194
грам	-2195
▁аре	-2196
▁сделаю	-2197
▁свое	-2198
лит	-2199
▁контро	-2200
дили	-2201
▁Вообще	-2202
▁близ	-2203
▁мас	-2204
▁подоз	-2205
▁вне	-2206
все	-2207
ляю	-2208
▁ясно	-2209
▁кур	-2210
чения	-2211
годи	-2212
▁приходи	-2213
логи	-2214
▁сот	-2215
▁Пом	-2216
▁уничто	-2217
▁доме	-2218
▁Знаете	-2219
люсь	-2220
▁рад	-2221
▁особ	-2222
▁исче	-2223
ску	-2224
служи	-2225
ходя	-2226
▁d	-2227
▁пара	-2228
▁двига	-2229
тельный	-2230
▁пришел	-2231
▁рассказать	-2232
▁мисс	-2233
▁нарко	-2234
яв	-2235
▁кор	-2236
▁Джек	-2237
руг	-2238
▁Уже	-2239
шее	-2240
▁мире	-2241
▁обсу	-2242
вобо	-2243
▁тело	-2244
▁прос	-2245
▁Какая	-2246
▁Ой	-2247
▁наших	-2248
рит	-2249
чай	-2250
▁скры	-2251
▁сами	-2252
re	-2253
мом	-2254
▁хороший	-2255
▁прекрас	-2256
▁столько	-2257
▁собствен	-2258
▁собра	-2259
▁тр	-2260
▁Джор	-2261
жай	-2262
▁чувство	-2263
реди	-2264
▁Думаешь	-2265
▁весе	-2266
вом	-2267
▁Чем	-2268
▁тор	-2269
льта	-2270
▁отношения	-2271
▁b	-2272
▁сва	-2273
▁мя	-2274
▁Вели	-2275
▁Пол	-2276
▁живо	-2277
гото	-2278
▁судь	-2279
▁Твой	-2280
▁ам	-2281
▁зара	-2282
▁получить	-2283
ствует	-2284
▁Реб	-2285
▁сможешь	-2286
пать	-2287
▁Кро	-2288
▁уверена	-2289
▁замеча	-2290
тки	-2291
ремя	-2292
▁две	-2293
▁Три	-2294
▁будете	-2295
вид	-2296
▁Том	-2297
зывать	-2298
▁созда	-2299
▁осо	-2300
ницы	-2301
хожу	-2302
торые	-2303
дает	-2304
нные	-2305
▁важ	-2306
▁вд	-2307
▁Алло	-2308
▁фор	-2309
ема	-2310
▁ги	-2311
▁следую	-2312
▁Могу	-2313
▁услыша	-2314
▁Именно	-2315
гази	-2316
▁сбе	-2317
▁думаете	-2318
дленно	-2319
зор	-2320
сили	-2321
▁уч	-2322
йди	-2323
000	-2324
▁получа	-2325
перед	-2326
тие	-2327
ll	-2328
▁вашего	-2329
▁орга	-2330
колько	-2331
▁край	-2332
▁часа	-2333
▁Никогда	-2334
▁пути	-2335
▁шта	-2336
аки	-2337
is	-2338
▁Тут	-2339
вата	-2340
▁никаких	-2341
▁неве	-2342
▁большой	-2343
▁небо	-2344
▁Ещё	-2345
ссо	-2346
стати	-2347
вайся	-2348
▁другом	-2349
▁Фрэн	-2350
ел	-2351
▁возра	-2352
▁пришли	-2353
▁обратно	-2354
печат	-2355
▁опять	-2356
▁тяже	-2357
▁хотели	-2358
▁Сэр	-2359
▁Можешь	-2360
▁нашего	-2361
▁р	-2362
▁Эд	-2363
▁пойма	-2364
▁непри	-2365
рии	-2366
лер	-2367
▁Пусть	-2368
▁самый	-2369
шить	-2370
▁Сэм	-2371
нки	-2372
енок	-2373
▁состоя	-2374
▁нашел	-2375
зь	-2376
ском	-2377
▁сист	-2378
▁опо	-2379
▁пово	-2380
▁поку	-2381
льной	-2382
▁воло	-2383
▁прика	-2384
скую	-2385
▁посмотреть	-2386
▁Понима	-2387
▁адвока	-2388
▁нару	-2389
▁музы	-2390
ктив	-2391
▁дал	-2392
▁делал	-2393
▁любовь	-2394
▁Ясно	-2395
тели	-2396
▁Ду	-2397
▁Кей	-2398
at	-2399
жь	-2400
▁приш	-2401
▁постоя	-2402
▁12	-2403
▁долла	-2404
ант	-2405
▁умира	-2406
▁подоб	-2407
▁кварти	-2408
▁Бер	-2409
нял	-2410
ловать	-2411
гите	-2412
▁поздно	-2413
▁Пред	-2414
шую	-2415
▁Чи	-2416
▁обычно	-2417
▁сом	-2418
▁пес	-2419
▁ваше	-2420
▁пережи	-2421
рк	-2422
▁выяс	-2423
▁Эм	-2424
дной	-2425
ям	-2426
▁дев	-2427
▁дура	-2428
рес	-2429
тей	-2430
чув	-2431
цать	-2432
▁выход	-2433
▁правду	-2434
▁пытался	-2435
чек	-2436
либо	-2437
▁гу	-2438
▁необходи	-2439
▁хотят	-2440
▁будь	-2441
▁решил	-2442
▁никого	-2443
▁ситуа	-2444
нешь	-2445
▁Наверное	-2446
▁подумал	-2447
es	-2448
▁безопасности	-2449
▁сда	-2450
▁разо	-2451
нали	-2452
▁кам	-2453
нием	-2454
▁прези	-2455
▁магази	-2456
зывает	-2457
тельства	-2458
▁работе	-2459
сона	-2460
▁Твоя	-2461
▁Будь	-2462
ктора	-2463
влека	-2464
▁новый	-2465
▁вста	-2466
▁чтоб	-2467
▁сту	-2468
▁здорово	-2469
▁других	-2470
▁другу	-2471
▁вернулся	-2472
▁сери	-2473
▁деся	-2474
▁Тебя	-2475
▁любит	-2476
▁парни	-2477
▁Сдела	-2478
▁одни	-2479
▁Ему	-2480
ложить	-2481
койся	-2482
▁Пит	-2483
пря	-2484
▁дам	-2485
▁справи	-2486
▁поль	-2487
▁прежде	-2488
▁совет	-2489
гал	-2490
▁Кон	-2491
лек	-2492
ёте	-2493
▁сможем	-2494
стру	-2495
▁остаться	-2496
▁зай	-2497
▁честь	-2498
ником	-2499
гие	-2500
▁хра	-2501
▁твое	-2502
дали	-2503
дент	-2504
цом	-2505
▁Ваше	-2506
▁холо	-2507
▁пись	-2508
круг	-2509
▁думать	-2510
▁говорили	-2511
▁скажешь	-2512
▁чёр	-2513
▁Говори	-2514
▁силь	-2515
▁малы	-2516
▁задни	-2517
цов	-2518
▁какие	-2519
▁когото	-2520
▁пришла	-2521
▁ждать	-2522
чил	-2523
лена	-2524
▁Ок	-2525
ческий	-2526
▁прекрасно	-2527
плохо	-2528
▁смерть	-2529
лой	-2530
▁замети	-2531
тит	-2532
▁привет	-2533
гов	-2534
ЕР	-2535
▁прия	-2536
▁семья	-2537
▁двух	-2538
▁использу	-2539
▁которое	-2540
▁Бог	-2541
▁угро	-2542
▁цен	-2543
▁поги	-2544
▁обна	-2545
▁говорите	-2546
ужели	-2547
▁миссис	-2548
▁исчез	-2549
▁Хотя	-2550
▁боже	-2551
▁другие	-2552
▁спать	-2553
циально	-2554
▁благо	-2555
▁Хар	-2556
▁поверить	-2557
▁секун	-2558
чики	-2559
▁тай	-2560
нение	-2561
▁станет	-2562
▁Лучше	-2563
▁которых	-2564
▁Бен	-2565
▁Уви	-2566
▁Ваша	-2567
▁наша	-2568
▁Верно	-2569
низ	-2570
ющие	-2571
▁глав	-2572
▁наконец	-2573
▁получил	-2574
цион	-2575
▁Эми	-2576
▁понадо	-2577
▁Мои	-2578
льное	-2579
▁счет	-2580
▁выра	-2581
▁довольно	-2582
▁руку	-2583
▁верю	-2584
▁знаком	-2585
ятся	-2586
▁оружие	-2587
▁бога	-2588
пита	-2589
▁мало	-2590
▁одино	-2591
тка	-2592
▁угодно	-2593
▁кроме	-2594
▁Вообщето	-2595
мери	-2596
▁согласи	-2597
лай	-2598
дала	-2599
тельство	-2600
▁стар	-2601
▁преду	-2602
▁предло	-2603
▁Чёрт	-2604
вен	-2605
▁начала	-2606
хвати	-2607
ус	-2608
▁моё	-2609
▁вернусь	-2610
воря	-2611
▁Увер	-2612
▁ши	-2613
сила	-2614
▁Ктото	-2615
▁стороны	-2616
▁сти	-2617
▁Серь	-2618
тащи	-2619
чной	-2620
▁делаю	-2621
as	-2622
▁ува	-2623
▁сына	-2624
▁Ке	-2625
▁делаете	-2626
сут	-2627
возможно	-2628
лка	-2629
▁пле	-2630
▁кофе	-2631
жаться	-2632
▁Возь	-2633
▁хуже	-2634
▁людя	-2635
рин	-2636
▁ск	-2637
▁Видишь	-2638
▁видишь	-2639
кнись	-2640
▁Сле	-2641
бить	-2642
▁Ин	-2643
▁Люди	-2644
▁трудно	-2645
▁Доброе	-2646
▁смотреть	-2647
гом	-2648
▁выигра	-2649
▁спасти	-2650
▁верн	-2651
▁поез	-2652
▁Стой	-2653
▁переста	-2654
▁странно	-2655
▁Ту	-2656
лад	-2657
лета	-2658
нице	-2659
вайте	-2660
▁l	-2661
▁право	-2662
▁какойто	-2663
▁зада	-2664
▁надеюсь	-2665
▁таких	-2666
▁Стра	-2667
▁кровь	-2668
кля	-2669
▁когданибудь	-2670
▁ха	-2671
▁дорогая	-2672
▁Спокой	-2673
▁наблю	-2674
ишь	-2675
кси	-2676
▁запа	-2677
тера	-2678
▁приду	-2679
▁интересно	-2680
шек	-2681
лены	-2682
нен	-2683
▁Фран	-2684
зови	-2685
стера	-2686
▁Джен	-2687
▁бес	-2688
шед	-2689
рот	-2690
▁взял	-2691
▁мень	-2692
дка	-2693
▁играть	-2694
чено	-2695
титься	-2696
▁повто	-2697
▁путь	-2698
▁свидете	-2699
▁сможет	-2700
▁поки	-2701
▁конце	-2702
▁сих	-2703
▁Два	-2704
▁пришлось	-2705
▁мере	-2706
▁крови	-2707
▁вернуть	-2708
▁четыре	-2709
жим	-2710
▁Их	-2711
▁фак	-2712
▁Эли	-2713
казыва	-2714
▁идет	-2715
вное	-2716
йо	-2717
▁оби	-2718
▁ци	-2719
▁прощения	-2720
дец	-2721
▁знали	-2722
▁чуть	-2723
▁писа	-2724
▁экс	-2725
▁ребенка	-2726
▁спокой	-2727
али	-2728
ваем	-2729
▁фотографи	-2730
▁профе	-2731
шишь	-2732
▁пове	-2733
▁далеко	-2734
ссе	-2735
гами	-2736
гает	-2737
▁внутри	-2738
▁следующий	-2739
тья	-2740
дила	-2741
▁чувак	-2742
▁заслужи	-2743
▁откуда	-2744
нулся	-2745
▁0	-2746
▁успо	-2747
▁придума	-2748
▁Уо	-2749
▁машина	-2750
▁Бро	-2751
▁Джим	-2752
лил	-2753
▁p	-2754
юр	-2755
▁Какого	-2756
виду	-2757
▁озна	-2758
диться	-2759
ереть	-2760
тт	-2761
▁посла	-2762
▁следует	-2763
▁полицей	-2764
▁твоих	-2765
▁застави	-2766
хе	-2767
жка	-2768
▁глупо	-2769
▁Аль	-2770
▁долларов	-2771
▁Оно	-2772
▁позже	-2773
лови	-2774
▁цвет	-2775
лете	-2776
бри	-2777
▁сте	-2778
▁году	-2779
▁выглядит	-2780
▁обла	-2781
лые	-2782
▁забра	-2783
▁выз	-2784
мс	-2785
▁семьи	-2786
дный	-2787
ек	-2788
▁Больше	-2789
стить	-2790
ждение	-2791
лки	-2792
▁свадь	-2793
лок	-2794
леп	-2795
▁убь	-2796
ing	-2797
фф	-2798
пустить	-2799
▁пропа	-2800
▁ху	-2801
▁Ваш	-2802
al	-2803
▁25	-2804
▁хотим	-2805
▁воспо	-2806
▁мужчина	-2807
того	-2808
▁сестра	-2809
▁конец	-2810
▁огром	-2811
ай	-2812
▁пошли	-2813
▁паль	-2814
лег	-2815
▁часто	-2816
▁найд	-2817
явля	-2818
▁явля	-2819
▁писто	-2820
▁спросить	-2821
енера	-2822
дон	-2823
▁иногда	-2824
▁зако	-2825
шкой	-2826
вери	-2827
▁твоим	-2828
▁мужи	-2829
▁Ги	-2830
▁Дэн	-2831
▁биз	-2832
▁очере	-2833
▁предупре	-2834
▁анг	-2835
телей	-2836
▁новости	-2837
▁вокруг	-2838
▁разру	-2839
▁непо	-2840
ac	-2841
реза	-2842
▁уходи	-2843
▁чет	-2844
▁решение	-2845
вар	-2846
▁получ	-2847
бий	-2848
кли	-2849
▁нашу	-2850
▁какое	-2851
ими	-2852
кер	-2853
цем	-2854
▁серьезно	-2855
▁вашу	-2856
▁поможет	-2857
тая	-2858
▁бума	-2859
▁типа	-2860
▁нему	-2861
ях	-2862
▁собираешься	-2863
▁заму	-2864
нула	-2865
▁знают	-2866
▁давайте	-2867
▁Нем	-2868
шке	-2869
▁единственный	-2870
▁уча	-2871
хва	-2872
▁ужасно	-2873
▁нашла	-2874
готов	-2875
ливо	-2876
▁Амери	-2877
▁короле	-2878
▁жени	-2879
▁имени	-2880
ёзно	-2881
▁вид	-2882
чая	-2883
▁неза	-2884
▁затем	-2885
▁вина	-2886
▁пытаюсь	-2887
▁рада	-2888
илл	-2889
▁стара	-2890
льная	-2891
▁понадоби	-2892
▁Пойдем	-2893
▁готовы	-2894
▁станови	-2895
жите	-2896
▁осталось	-2897
хать	-2898
▁h	-2899
▁Рей	-2900
▁использовать	-2901
ровал	-2902
▁неделю	-2903
▁30	-2904
▁совершенно	-2905
▁скорее	-2906
бсо	-2907
ваете	-2908
▁мальчик	-2909
ехала	-2910
тай	-2911
нения	-2912
▁Позволь	-2913
зов	-2914
▁гдето	-2915
рос	-2916
жаю	-2917
хов	-2918
▁сим	-2919
▁дерьмо	-2920
▁неме	-2921
▁дете	-2922
нка	-2923
▁осторо	-2924
▁Рэй	-2925
▁винова	-2926
▁машины	-2927
▁гре	-2928
рэ	-2929
▁иначе	-2930
чеви	-2931
рован	-2932
яти	-2933
▁Ведь	-2934
шите	-2935
▁каждо	-2936
▁изба	-2937
▁больно	-2938
ково	-2939
▁сначала	-2940
▁Хан	-2941
▁D	-2942
▁Боб	-2943
▁влю	-2944
▁Жи	-2945
▁охо	-2946
▁комнате	-2947
пример	-2948
бсолю	-2949
▁Мор	-2950
мера	-2951
et	-2952
▁суд	-2953
▁самого	-2954
▁Потом	-2955
▁Пря	-2956
▁приятель	-2957
▁оставить	-2958
▁гря	-2959
гру	-2960
фо	-2961
▁неболь	-2962
▁Мисс	-2963
гре	-2964
▁эк	-2965
▁Было	-2966
▁Неужели	-2967
РН	-2968
ниться	-2969
ющих	-2970
▁Отец	-2971
▁чему	-2972
▁Пе	-2973
▁слышала	-2974
▁клу	-2975
▁начать	-2976
▁стран	-2977
▁хвата	-2978
▁месяцев	-2979
▁Хи	-2980
▁Дей	-2981
▁паци	-2982
▁попыта	-2983
льных	-2984
▁убили	-2985
беру	-2986
▁милая	-2987
▁доказа	-2988
▁узнал	-2989
▁Ай	-2990
доб	-2991
рил	-2992
▁Дело	-2993
▁полиции	-2994
лё	-2995
вший	-2996
▁както	-2997
▁рождения	-2998
▁стро	-2999
▁забыл	-3000
▁сосе	-3001
▁девочка	-3002
▁Благода	-3003
мон	-3004
▁минуту	-3005
▁све	-3006
▁повез	-3007
дера	-3008
щать	-3009
ством	-3010
▁язы	-3011
мите	-3012
▁дай	-3013
мм	-3014
▁найду	-3015
▁цер	-3016
▁Лин	-3017
шил	-3018
▁ребенок	-3019
гры	-3020
▁утра	-3021
сан	-3022
▁школе	-3023
▁Ее	-3024
Йор	-3025
▁Дон	-3026
вни	-3027
▁двое	-3028
щь	-3029
мотрю	-3030
▁Чарли	-3031
▁любишь	-3032
кам	-3033
▁аресто	-3034
▁вдруг	-3035
▁живот	-3036
▁помнишь	-3037
▁боя	-3038
▁НьюЙор	-3039
▁сложно	-3040
вались	-3041
▁быстрее	-3042
▁необходимо	-3043
▁невозможно	-3044
▁образом	-3045
▁окру	-3046
▁приве	-3047
нули	-3048
▁история	-3049
▁постоянно	-3050
▁подозре	-3051
▁мечта	-3052
ol	-3053
щие	-3054
▁выпол	-3055
гли	-3056
▁впер	-3057
чевидно	-3058
мотря	-3059
бил	-3060
▁мар	-3061
или	-3062
жки	-3063
▁ищ	-3064
▁Увидимся	-3065
▁другое	-3066
▁сум	-3067
▁машине	-3068
▁50	-3069
жении	-3070
ступа	-3071
чей	-3072
▁выс	-3073
▁насто	-3074
▁200	-3075
ваюсь	-3076
дия	-3077
▁пожаловать	-3078
▁Ген	-3079
стри	-3080
▁друзей	-3081
▁Оставь	-3082
▁легко	-3083
▁мед	-3084
▁освобо	-3085
▁обще	-3086
рует	-3087
зульта	-3088
▁мор	-3089
чных	-3090
ствия	-3091
▁огра	-3092
жала	-3093
▁стол	-3094
тора	-3095
ственное	-3096
▁поняла	-3097
лта	-3098
▁класс	-3099
кумен	-3100
▁доч	-3101
▁уво	-3102
фер	-3103
▁Поли	-3104
пли	-3105
▁Рай	-3106
▁Уда	-3107
твер	-3108
▁прин	-3109
▁иметь	-3110
▁Вз	-3111
▁остановить	-3112
▁добра	-3113
димо	-3114
▁крайней	-3115
▁the	-3116
лее	-3117
▁игру	-3118
▁пусть	-3119
▁Поз	-3120
▁позабо	-3121
▁своими	-3122
колеп	-3123
йдёт	-3124
▁Её	-3125
▁лу	-3126
▁другого	-3127
▁недели	-3128
▁своё	-3129
сье	-3130
▁понимаете	-3131
стю	-3132
▁Моло	-3133
▁боюсь	-3134
▁Роб	-3135
▁людям	-3136
дан	-3137
▁Иногда	-3138
▁результа	-3139
sc	-3140
▁всей	-3141
▁чувства	-3142
сят	-3143
▁Дру	-3144
ана	-3145
▁Сам	-3146
▁возду	-3147
▁g	-3148
лку	-3149
▁тысяч	-3150
умас	-3151
▁полностью	-3152
▁Хочу	-3153
стин	-3154
▁погиб	-3155
▁прис	-3156
жусь	-3157
▁зави	-3158
▁части	-3159
▁Зем	-3160
ческой	-3161
▁человеком	-3162
кин	-3163
▁Сер	-3164
▁лучший	-3165
надле	-3166
▁никому	-3167
▁поста	-3168
енни	-3169
▁Джа	-3170
врати	-3171
▁женщины	-3172
ис	-3173
▁сдел	-3174
▁неда	-3175
▁G	-3176
▁заклю	-3177
▁придётся	-3178
▁дя	-3179
▁Изза	-3180
▁стало	-3181
тью	-3182
▁городе	-3183
страи	-3184
статочно	-3185
нуться	-3186
▁убийства	-3187
▁наше	-3188
▁вспом	-3189
рак	-3190
▁мол	-3191
▁забрать	-3192
дись	-3193
▁думает	-3194
▁Заткнись	-3195
ed	-3196
▁Сна	-3197
▁меньше	-3198
▁заставля	-3199
жает	-3200
▁Ей	-3201
▁мене	-3202
дки	-3203
▁показать	-3204
чаю	-3205
готови	-3206
▁таком	-3207
сный	-3208
▁предо	-3209
▁W	-3210
▁имеешь	-3211
▁принадле	-3212
▁P	-3213
меня	-3214
лянусь	-3215
▁отказа	-3216
▁L	-3217
пой	-3218
чон	-3219
▁любви	-3220
▁хорош	-3221
▁хорошая	-3222
тин	-3223
ёд	-3224
▁you	-3225
om	-3226
▁поце	-3227
ев	-3228
▁готова	-3229
▁истории	-3230
▁спу	-3231
▁волнуйся	-3232
▁свидания	-3233
▁ктонибудь	-3234
▁сообщи	-3235
чке	-3236
▁каса	-3237
▁приз	-3238
▁роди	-3239
тишь	-3240
▁зака	-3241
ляет	-3242
▁настолько	-3243
▁школу	-3244
▁100	-3245
▁Мам	-3246
▁удоволь	-3247
ске	-3248
▁камер	-3249
ЕН	-3250
▁Гла	-3251
▁Зо	-3252
енное	-3253
▁умереть	-3254
▁свер	-3255
▁уб	-3256
▁вон	-3257
▁нер	-3258
▁насчёт	-3259
▁известно	-3260
▁Подождите	-3261
▁прибы	-3262
▁однажды	-3263
▁сообщение	-3264
▁зу	-3265
▁моем	-3266
▁конца	-3267
▁города	-3268
зер	-3269
▁Зак	-3270
▁пам	-3271
ческие	-3272
▁расстро	-3273
▁Завтра	-3274
цией	-3275
▁выйти	-3276
▁стала	-3277
▁встретиться	-3278
▁переда	-3279
▁смотре	-3280
▁здо	-3281
po	-3282
▁обви	-3283
чал	-3284
▁возможность	-3285
▁сохра	-3286
▁честно	-3287
гло	-3288
▁вопросы	-3289
бсолютно	-3290
▁стои	-3291
тами	-3292
▁делают	-3293
▁Ши	-3294
пасть	-3295
▁Майкл	-3296
▁Каждый	-3297
▁брата	-3298
пыт	-3299
ряса	-3300
▁Добро	-3301
▁Большо	-3302
жали	-3303
лик	-3304
дина	-3305
▁потерял	-3306
▁Расска	-3307
щаю	-3308
▁шоу	-3309
▁поддер	-3310
▁попробу	-3311
литься	-3312
▁около	-3313
▁сни	-3314
▁k	-3315
▁член	-3316
▁ваших	-3317
лон	-3318
▁насколько	-3319
ходят	-3320
▁зло	-3321
▁убийство	-3322
▁Добрый	-3323
▁иду	-3324
▁интер	-3325
▁ребён	-3326
▁купить	-3327
тельная	-3328
▁тан	-3329
▁сработа	-3330
▁Продол	-3331
тые	-3332
циона	-3333
чным	-3334
теше	-3335
▁причина	-3336
▁научи	-3337
▁органи	-3338
▁Питер	-3339
НК	-3340
▁миллио	-3341
▁бабу	-3342
честве	-3343
▁приятно	-3344
▁шут	-3345
▁амери	-3346
стран	-3347
бку	-3348
▁вести	-3349
▁мыс	-3350
▁докумен	-3351
▁e	-3352
довать	-3353
шин	-3354
▁второй	-3355
▁Тай	-3356
▁надея	-3357
▁любом	-3358
▁полови	-3359
мя	-3360
ступи	-3361
нах	-3362
▁програм	-3363
рения	-3364
▁связи	-3365
БР	-3366
▁Сюда	-3367
▁прошлой	-3368
ится	-3369
▁Свя	-3370
эт	-3371
▁Погоди	-3372
сер	-3373
▁наркоти	-3374
▁шан	-3375
▁Ваши	-3376
▁Какие	-3377
▁сделаем	-3378
▁разу	-3379
пуск	-3380
▁Кру	-3381
▁выбор	-3382
▁дорогой	-3383
▁бывает	-3384
▁привы	-3385
▁мира	-3386
пуга	-3387
▁похи	-3388
щаться	-3389
▁Ого	-3390
аме	-3391
▁бар	-3392
▁реально	-3393
щих	-3394
нан	-3395
▁сигна	-3396
▁газ	-3397
▁пас	-3398
▁господин	-3399
▁Понятно	-3400
льным	-3401
▁соба	-3402
▁управля	-3403
▁означает	-3404
▁позвонить	-3405
▁звез	-3406
били	-3407
пор	-3408
▁горя	-3409
нику	-3410
▁пример	-3411
us	-3412
▁капитан	-3413
▁искать	-3414
▁купи	-3415
▁костю	-3416
▁держи	-3417
▁18	-3418
▁сред	-3419
▁Прави	-3420
▁телефо	-3421
▁11	-3422
бовать	-3423
▁проти	-3424
ложил	-3425
▁принять	-3426
▁Через	-3427
ель	-3428
ал	-3429
щую	-3430
▁прошлом	-3431
дём	-3432
▁увидел	-3433
▁всему	-3434
▁сумас	-3435
джи	-3436
стов	-3437
▁гро	-3438
дар	-3439
тили	-3440
дёт	-3441
рис	-3442
вете	-3443
▁которым	-3444
▁внимание	-3445
▁обу	-3446
▁хр	-3447
▁выглядишь	-3448
дии	-3449
▁умерла	-3450
▁Вин	-3451
▁поводу	-3452
бин	-3453
▁представить	-3454
жку	-3455
▁мест	-3456
▁напи	-3457
▁цель	-3458
▁выжи	-3459
▁ноги	-3460
▁отцом	-3461
вли	-3462
▁N	-3463
▁компании	-3464
пута	-3465
▁выпить	-3466
▁расследова	-3467
▁пистолет	-3468
▁охра	-3469
▁приня	-3470
важно	-3471
▁праз	-3472
▁пришёл	-3473
▁счас	-3474
▁кол	-3475
лот	-3476
дьми	-3477
▁последние	-3478
няка	-3479
▁меди	-3480
▁слома	-3481
▁обнаружи	-3482
▁работаю	-3483
▁подтвер	-3484
лых	-3485
▁оставил	-3486
няет	-3487
▁уров	-3488
▁нрав	-3489
казала	-3490
▁получится	-3491
валась	-3492
ентов	-3493
даю	-3494
▁Капитан	-3495
▁неправи	-3496
▁возьму	-3497
ерри	-3498
▁твоё	-3499
рна	-3500
нев	-3501
▁вклю	-3502
▁Переводчики	-3503
▁последнее	-3504
▁радо	-3505
▁агент	-3506
лым	-3507
▁неплохо	-3508
гер	-3509
дная	-3510
▁Мэри	-3511
▁улы	-3512
▁вещь	-3513
▁начал	-3514
▁Ух	-3515
кре	-3516
пись	-3517
▁Кстати	-3518
▁Генри	-3519
▁маленький	-3520
▁стороне	-3521
▁Обе	-3522
ций	-3523
рочно	-3524
ила	-3525
▁Всем	-3526
▁ото	-3527
▁историю	-3528
▁бом	-3529
▁сексу	-3530
▁месяца	-3531
цер	-3532
▁обязательно	-3533
тел	-3534
матри	-3535
▁Стив	-3536
▁Доро	-3537
цени	-3538
соеди	-3539
▁пят	-3540
▁держать	-3541
гай	-3542
▁служ	-3543
▁Гарри	-3544
▁родители	-3545
▁еду	-3546
жале	-3547
иться	-3548
▁шесть	-3549
▁случится	-3550
▁страш	-3551
▁заб	-3552
▁Тот	-3553
▁Послушайте	-3554
▁снима	-3555
▁никакого	-3556
чную	-3557
крой	-3558
▁мет	-3559
лож	-3560
ским	-3561
▁воды	-3562
▁глаз	-3563
ческая	-3564
▁неделе	-3565
▁Прямо	-3566
▁комнату	-3567
▁Миссис	-3568
дение	-3569
▁обма	-3570
▁нём	-3571
лец	-3572
▁тяжело	-3573
ic	-3574
▁назна	-3575
▁идиот	-3576
▁День	-3577
▁арми	-3578
▁прове	-3579
▁Этого	-3580
выми	-3581
▁ого	-3582
щай	-3583
ot	-3584
▁суб	-3585
▁стан	-3586
▁курсе	-3587
▁лекар	-3588
▁удиви	-3589
льного	-3590
▁цент	-3591
▁уро	-3592
лили	-3593
стры	-3594
▁Фрэнк	-3595
▁другим	-3596
▁сторону	-3597
▁проце	-3598
▁выпи	-3599
▁либо	-3600
▁вет	-3601
▁посмотрим	-3602
▁Гу	-3603
▁выстре	-3604
▁Слишком	-3605
▁позволить	-3606
▁карти	-3607
▁людьми	-3608
▁ввиду	-3609
▁пошел	-3610
▁путеше	-3611
▁посте	-3612
▁золо	-3613
▁ужин	-3614
▁оставля	-3615
читы	-3616
нами	-3617
зить	-3618
дже	-3619
▁убийца	-3620
▁поко	-3621
анта	-3622
▁чёрт	-3623
▁рассказал	-3624
▁Дайте	-3625
▁Слушайте	-3626
▁Вон	-3627
шает	-3628
▁секунду	-3629
лья	-3630
▁Пора	-3631
▁женщин	-3632
▁изу	-3633
▁каким	-3634
▁смешно	-3635
am	-3636
ат	-3637
АН	-3638
аку	-3639
▁Ник	-3640
▁повезло	-3641
▁обвин	-3642
le	-3643
▁замо	-3644
▁работал	-3645
▁вместо	-3646
▁подумать	-3647
▁предложение	-3648
▁любов	-3649
мей	-3650
▁испол	-3651
клады	-3652
▁Сначала	-3653
▁произ	-3654
▁упа	-3655
▁правила	-3656
▁улице	-3657
▁корабль	-3658
нём	-3659
▁Рожде	-3660
▁Попро	-3661
гах	-3662
▁пройти	-3663
▁to	-3664
▁некоторые	-3665
тым	-3666
▁безу	-3667
▁Помнишь	-3668
лии	-3669
▁настоящий	-3670
пен	-3671
ТО	-3672
▁сотру	-3673
щик	-3674
▁Спокойной	-3675
▁большая	-3676
▁Успо	-3677
▁Скоро	-3678
▁Оу	-3679
▁зас	-3680
рах	-3681
▁Оли	-3682
▁подумала	-3683
▁чуде	-3684
фу	-3685
▁сила	-3686
лекс	-3687
▁настро	-3688
▁солда	-3689
хом	-3690
▁находится	-3691
чел	-3692
▁Чер	-3693
дри	-3694
▁эй	-3695
▁Нельзя	-3696
▁окон	-3697
чок	-3698
▁R	-3699
▁моему	-3700
▁леди	-3701
▁фе	-3702
▁Кан	-3703
циаль	-3704
▁руках	-3705
кать	-3706
▁спря	-3707
▁Хотите	-3708
▁мужа	-3709
▁извест	-3710
▁подарок	-3711
▁Помогите	-3712
▁ан	-3713
▁Лон	-3714
▁Джордж	-3715
▁Челове	-3716
▁Идем	-3717
▁Сла	-3718
ровали	-3719
▁дан	-3720
▁познакомиться	-3721
раздо	-3722
▁Тем	-3723
▁выбира	-3724
сл	-3725
▁понятно	-3726
ur	-3727
▁одним	-3728
▁стреля	-3729
льник	-3730
тельные	-3731
нят	-3732
▁милый	-3733
▁хи	-3734
▁Ктонибудь	-3735
▁идёт	-3736
▁проверить	-3737
▁Кроме	-3738
▁требу	-3739
▁месяц	-3740
▁Рад	-3741
▁распо	-3742
▁плани	-3743
льд	-3744
▁встречи	-3745
йдите	-3746
дцать	-3747
▁поб	-3748
▁исс	-3749
▁Всегда	-3750
▁лоша	-3751
▁Должно	-3752
▁взры	-3753
▁бля	-3754
▁провести	-3755
▁немедленно	-3756
▁Какое	-3757
▁минутку	-3758
▁полагаю	-3759
▁пож	-3760
енный	-3761
всегда	-3762
▁ез	-3763
гии	-3764
▁мини	-3765
мая	-3766
▁сумасшед	-3767
вит	-3768
ЕМ	-3769
▁Мари	-3770
▁энер	-3771
▁Бри	-3772
▁доверя	-3773
▁Возьми	-3774
ствую	-3775
▁туа	-3776
▁потре	-3777
шит	-3778
▁детка	-3779
▁Полу	-3780
туда	-3781
▁видео	-3782
обе	-3783
кет	-3784
▁полити	-3785
▁хозя	-3786
йдешь	-3787
пустите	-3788
▁кос	-3789
▁любой	-3790
▁пожи	-3791
▁девчон	-3792
▁определ	-3793
▁ал	-3794
▁такую	-3795
ЕЛ	-3796
▁ФБР	-3797
сия	-3798
коль	-3799
▁берем	-3800
▁всеми	-3801
▁игры	-3802
▁семью	-3803
▁Оп	-3804
▁вез	-3805
▁практи	-3806
▁рано	-3807
▁Никаких	-3808
▁Уол	-3809
▁восста	-3810
▁дорогу	-3811
▁Отли	-3812
дку	-3813
▁Анг	-3814
▁Осторо	-3815
▁стали	-3816
▁парт	-3817
▁собирался	-3818
▁Прекрати	-3819
▁подожди	-3820
▁ублю	-3821
▁Уи	-3822
▁объяснить	-3823
▁почув	-3824
▁преда	-3825
пьют	-3826
▁дости	-3827
▁котором	-3828
▁защитить	-3829
чер	-3830
▁сомне	-3831
▁ошиба	-3832
▁Ребята	-3833
твори	-3834
▁тела	-3835
▁мистера	-3836
эл	-3837
тро	-3838
▁гости	-3839
вайтесь	-3840
▁неприятно	-3841
▁вкус	-3842
▁Серьезно	-3843
▁пья	-3844
дного	-3845
▁относи	-3846
▁прийти	-3847
▁ван	-3848
▁Время	-3849
▁Можете	-3850
▁мужик	-3851
влю	-3852
▁голос	-3853
▁избави	-3854
▁Окей	-3855
▁ап	-3856
нести	-3857
▁вари	-3858
▁понадобится	-3859
▁род	-3860
▁мысли	-3861
▁Аа	-3862
▁помогу	-3863
▁весело	-3864
меется	-3865
йл	-3866
▁понятия	-3867
▁какого	-3868
▁вытащи	-3869
▁Ким	-3870
▁Будет	-3871
▁Дэнни	-3872
▁кино	-3873
ad	-3874
▁намного	-3875
▁Господин	-3876
вор	-3877
щему	-3878
▁решили	-3879
ул	-3880
нюю	-3881
▁нашёл	-3882
▁большое	-3883
чкой	-3884
зывал	-3885
▁самая	-3886
▁бой	-3887
▁зап	-3888
▁пойдем	-3889
▁пресле	-3890
▁слышали	-3891
чие	-3892
▁стой	-3893
хода	-3894
▁Ша	-3895
мит	-3896
пери	-3897
ваются	-3898
ay	-3899
▁побы	-3900
▁Согла	-3901
▁Смотрите	-3902
▁общем	-3903
▁отда	-3904
▁F	-3905
рами	-3906
▁дире	-3907
ственный	-3908
▁среди	-3909
▁заба	-3910
▁делай	-3911
▁стары	-3912
▁разобра	-3913
▁уверены	-3914
▁поле	-3915
▁силы	-3916
▁Фе	-3917
▁Мер	-3918
жела	-3919
▁речь	-3920
▁коль	-3921
▁гряз	-3922
▁времен	-3923
стан	-3924
бби	-3925
▁полицию	-3926
чий	-3927
▁имел	-3928
жнее	-3929
▁связь	-3930
▁голове	-3931
жина	-3932
няя	-3933
▁соз	-3934
бычно	-3935
▁фу	-3936
лую	-3937
▁вечно	-3938
рачи	-3939
▁впечат	-3940
нья	-3941
▁письмо	-3942
▁Понял	-3943
▁сты	-3944
▁Сло	-3945
эль	-3946
▁ехать	-3947
▁Скажите	-3948
▁прош	-3949
▁хотелось	-3950
▁Фо	-3951
чена	-3952
▁супер	-3953
▁помощи	-3954
тура	-3955
тах	-3956
утбо	-3957
полне	-3958
лий	-3959
▁вниз	-3960
▁яй	-3961
чусь	-3962
▁хочется	-3963
▁своем	-3964
вро	-3965
▁Грей	-3966
▁каком	-3967
крет	-3968
пустил	-3969
▁Сай	-3970
▁шлю	-3971
ep	-3972
шем	-3973
▁болез	-3974
▁броса	-3975
▁семей	-3976
16	-3977
▁побо	-3978
юрпри	-3979
▁Кор	-3980
▁великолеп	-3981
▁суде	-3982
▁Хе	-3983
лд	-3984
▁малыш	-3985
▁вашим	-3986
▁знакомы	-3987
пан	-3988
▁ресто	-3989
▁словно	-3990
мент	-3991
ow	-3992
держа	-3993
▁Ис	-3994
нешься	-3995
стом	-3996
разу	-3997
▁выбора	-3998
вяза	-3999
▁получилось	-4000
▁замуж	-4001
▁преступления	-4002
▁босс	-4003
▁Наш	-4004
▁одном	-4005
▁парнем	-4006
нему	-4007
▁зад	-4008
▁гораздо	-4009
▁решила	-4010
▁Полагаю	-4011
▁Сон	-4012
▁ушла	-4013
▁школы	-4014
▁собирается	-4015
телем	-4016
▁недель	-4017
няться	-4018
▁слышишь	-4019
▁делу	-4020
▁круто	-4021
сей	-4022
▁первым	-4023
▁является	-4024
▁вперед	-4025
▁Прекрасно	-4026
жо	-4027
▁вернулась	-4028
нике	-4029
▁ощу	-4030
дения	-4031
тельное	-4032
▁считаю	-4033
▁Сы	-4034
гги	-4035
рам	-4036
жный	-4037
▁сидеть	-4038
▁Ча	-4039
▁Ради	-4040
щим	-4041
▁добро	-4042
баты	-4043
▁свидание	-4044
▁ата	-4045
▁дороги	-4046
мый	-4047
дитель	-4048
▁оттуда	-4049
▁чемто	-4050
▁Джейн	-4051
еме	-4052
▁своему	-4053
▁чувствуешь	-4054
▁чудо	-4055
▁Всего	-4056
▁становится	-4057
▁нашим	-4058
▁Быстрее	-4059
▁заниматься	-4060
▁вопросов	-4061
and	-4062
▁интерес	-4063
▁близко	-4064
▁разгово	-4065
▁поговорим	-4066
▁Ком	-4067
▁будущее	-4068
мены	-4069
▁американ	-4070
▁поддержи	-4071
навли	-4072
▁пытается	-4073
▁нож	-4074
чим	-4075
леб	-4076
лье	-4077
▁чертов	-4078
▁список	-4079
▁опла	-4080
▁нечего	-4081
▁Скорее	-4082
▁перевод	-4083
▁сотрудни	-4084
▁Уверен	-4085
▁Гото	-4086
ждать	-4087
▁Бога	-4088
мое	-4089
op	-4090
жей	-4091
▁четвер	-4092
▁Попробу	-4093
▁Вперед	-4094
▁психо	-4095
▁Останови	-4096
▁16	-4097
▁покон	-4098
▁хорошие	-4099
ллер	-4100
ОН	-4101
▁Интере	-4102
рясаю	-4103
чества	-4104
▁вероятно	-4105
▁черта	-4106
цами	-4107
гия	-4108
дится	-4109
▁быв	-4110
▁десять	-4111
▁секунд	-4112
▁приехал	-4113
▁поса	-4114
▁остро	-4115
▁пы	-4116
▁попробовать	-4117
семь	-4118
▁послушай	-4119
СТ	-4120
▁тран	-4121
▁Един	-4122
▁бизнес	-4123
▁семье	-4124
▁верить	-4125
▁дав	-4126
▁й	-4127
вей	-4128
▁Кас	-4129
▁Боюсь	-4130
▁Рича	-4131
▁14	-4132
▁придет	-4133
дю	-4134
▁чест	-4135
лено	-4136
ak	-4137
ёнок	-4138
▁удалось	-4139
▁Перестань	-4140
▁друзьями	-4141
▁Гер	-4142
дравляю	-4143
дают	-4144
▁ушел	-4145
▁пошла	-4146
день	-4147
лении	-4148
вос	-4149
дыха	-4150
▁Тома	-4151
▁отправля	-4152
▁жесто	-4153
лями	-4154
▁серьез	-4155
▁принес	-4156
▁мэм	-4157
▁называется	-4158
▁слышу	-4159
▁Син	-4160
▁понравится	-4161
▁E	-4162
▁услышать	-4163
▁пти	-4164
▁ката	-4165
▁пап	-4166
▁когонибудь	-4167
▁13	-4168
▁роман	-4169
▁Сара	-4170
▁прие	-4171
ющим	-4172
▁самой	-4173
грать	-4174
▁уезжа	-4175
ec	-4176
el	-4177
ставил	-4178
▁Алекс	-4179
▁тюрьме	-4180
▁ока	-4181
тых	-4182
▁Лор	-4183
имся	-4184
кова	-4185
▁прикры	-4186
▁миллионов	-4187
▁глубо	-4188
▁жену	-4189
▁мёрт	-4190
рядок	-4191
▁Уж	-4192
ческих	-4193
жден	-4194
ишься	-4195
▁каза	-4196
дди	-4197
▁звучит	-4198
▁пыталась	-4199
▁стану	-4200
ите	-4201
рика	-4202
ственность	-4203
▁восто	-4204
▁состоянии	-4205
▁Зву	-4206
▁любил	-4207
▁ох	-4208
рать	-4209
ену	-4210
▁съе	-4211
нулась	-4212
im	-4213
▁навсегда	-4214
▁геро	-4215
дро	-4216
шеб	-4217
▁какую	-4218
лях	-4219
▁могло	-4220
▁волосы	-4221
ква	-4222
▁кух	-4223
▁завер	-4224
▁стоило	-4225
▁президен	-4226
▁помощью	-4227
▁футбо	-4228
вре	-4229
▁касается	-4230
▁доктора	-4231
▁Али	-4232
вки	-4233
кки	-4234
джа	-4235
▁договори	-4236
▁Поверь	-4237
тона	-4238
▁Мон	-4239
▁делаем	-4240
▁разговор	-4241
▁хватает	-4242
▁17	-4243
▁пры	-4244
▁сделает	-4245
▁страшно	-4246
ерью	-4247
▁несчаст	-4248
▁Макс	-4249
▁влюб	-4250
▁постро	-4251
▁Кл	-4252
▁сне	-4253
кви	-4254
▁полиция	-4255
▁услови	-4256
вало	-4257
▁возвра	-4258
хая	-4259
рез	-4260
▁Уил	-4261
▁Подума	-4262
▁созна	-4263
чо	-4264
▁продолжа	-4265
▁реш	-4266
▁Сем	-4267
ческое	-4268
▁слышать	-4269
лят	-4270
▁собы	-4271
▁положи	-4272
▁взяли	-4273
▁професси	-4274
▁очередь	-4275
▁доба	-4276
ходим	-4277
▁ненавижу	-4278
▁искус	-4279
▁обез	-4280
▁остальные	-4281
▁дерев	-4282
мов	-4283
рка	-4284
▁противо	-4285
▁просил	-4286
▁делали	-4287
▁трени	-4288
▁присоеди	-4289
▁счастлив	-4290
▁K	-4291
▁Здорово	-4292
▁40	-4293
▁попасть	-4294
▁оставаться	-4295
биться	-4296
▁абсолютно	-4297
льф	-4298
против	-4299
ЕТ	-4300
▁бак	-4301
зай	-4302
бот	-4303
▁Гра	-4304
▁Брай	-4305
▁особенно	-4306
▁Тре	-4307
стрет	-4308
кун	-4309
▁серьёзно	-4310
▁неправильно	-4311
шему	-4312
долго	-4313
▁Ху	-4314
▁сожал	-4315
енибудь	-4316
▁минуты	-4317
▁подро	-4318
▁сожале	-4319
▁заставить	-4320
▁мертв	-4321
▁Джеймс	-4322
ческого	-4323
▁изменить	-4324
▁Понимаешь	-4325
▁неуда	-4326
▁прокля	-4327
▁девушки	-4328
вном	-4329
▁Фло	-4330
чник	-4331
▁Отве	-4332
▁видите	-4333
▁Пра	-4334
▁похож	-4335
лект	-4336
един	-4337
ляр	-4338
▁генера	-4339
▁рот	-4340
ir	-4341
вол	-4342
бло	-4343
▁постара	-4344
▁Посмотрите	-4345
ера	-4346
▁сможете	-4347
▁паро	-4348
▁Пойдём	-4349
▁ключ	-4350
▁прибли	-4351
▁впервые	-4352
▁каждого	-4353
▁нашем	-4354
нам	-4355
▁Следу	-4356
▁смысл	-4357
еру	-4358
ствием	-4359
жено	-4360
▁убью	-4361
сите	-4362
▁покажу	-4363
▁случайно	-4364
кими	-4365
▁подальше	-4366
ясь	-4367
сах	-4368
▁сынок	-4369
▁вашем	-4370
▁делала	-4371
▁момента	-4372
▁чт	-4373
жные	-4374
пати	-4375
▁детектив	-4376
два	-4377
▁Немного	-4378
▁Ман	-4379
канчи	-4380
▁бере	-4381
вку	-4382
везти	-4383
▁обещаю	-4384
мена	-4385
▁нужда	-4386
▁получили	-4387
▁жизнью	-4388
▁Пари	-4389
▁избе	-4390
чарова	-4391
▁Поехали	-4392
енько	-4393
тур	-4394
▁небе	-4395
▁твоем	-4396
▁дали	-4397
▁ран	-4398
▁вку	-4399
▁живу	-4400
прос	-4401
▁позвоню	-4402
▁купил	-4403
рат	-4404
▁менее	-4405
▁Сов	-4406
▁Неко	-4407
мар	-4408
▁Идите	-4409
льз	-4410
тельной	-4411
дко	-4412
▁двери	-4413
▁раза	-4414
▁существует	-4415
▁дога	-4416
▁Джимми	-4417
hat	-4418
▁никуда	-4419
▁ходить	-4420
▁убивать	-4421
ведливо	-4422
▁друж	-4423
▁фран	-4424
ваемы	-4425
▁Полиция	-4426
▁исправи	-4427
жат	-4428
▁исследова	-4429
▁господа	-4430
▁Элли	-4431
ствовал	-4432
▁первой	-4433
▁бле	-4434
▁забудь	-4435
▁Благодарю	-4436
▁компьют	-4437
▁женой	-4438
▁Работа	-4439
▁трав	-4440
▁концов	-4441
писать	-4442
▁боро	-4443
▁девушку	-4444
▁твори	-4445
▁одол	-4446
▁контроли	-4447
▁смогла	-4448
▁музыка	-4449
тик	-4450
▁Аг	-4451
▁слушай	-4452
▁пить	-4453
явление	-4454
▁неви	-4455
чти	-4456
▁звонил	-4457
стря	-4458
▁удар	-4459
▁Хорошая	-4460
▁совпа	-4461
▁врач	-4462
▁контра	-4463
▁успоко	-4464
▁Кен	-4465
▁информацию	-4466
▁другую	-4467
▁этими	-4468
▁женщину	-4469
▁покое	-4470
▁помога	-4471
▁услу	-4472
▁слов	-4473
un	-4474
ваешься	-4475
▁живет	-4476
▁ас	-4477
сажи	-4478
▁занят	-4479
▁покупа	-4480
▁теря	-4481
fsc	-4482
вка	-4483
них	-4484
▁позволи	-4485
▁медици	-4486
жант	-4487
▁доверять	-4488
чается	-4489
▁лица	-4490
▁автобу	-4491
ответ	-4492
▁фун	-4493
HFF	-4494
▁мер	-4495
▁новую	-4496
дор	-4497
▁останется	-4498
енти	-4499
рию	-4500
дитесь	-4501
▁Ран	-4502
зит	-4503
ссор	-4504
▁расскажу	-4505
▁войны	-4506
▁ребёнка	-4507
▁старый	-4508
▁неиз	-4509
скор	-4510
▁коло	-4511
▁задницу	-4512
▁буты	-4513
▁пь	-4514
жна	-4515
▁недавно	-4516
▁каких	-4517
▁забыть	-4518
▁Чжу	-4519
▁Жен	-4520
куро	-4521
▁похоро	-4522
▁Идём	-4523
▁посо	-4524
50	-4525
▁свете	-4526
▁начали	-4527
▁думали	-4528
▁сделаешь	-4529
▁сил	-4530
▁карто	-4531
▁заи	-4532
▁отдел	-4533
▁бор	-4534
▁простите	-4535
▁спрята	-4536
кур	-4537
борато	-4538
▁полез	-4539
▁мадам	-4540
▁Эл	-4541
там	-4542
▁дочери	-4543
▁ждет	-4544
▁выше	-4545
▁дел	-4546
▁жало	-4547
▁Йо	-4548
▁наверняка	-4549
▁Дэвид	-4550
▁парней	-4551
▁многи	-4552
▁вечера	-4553
▁получила	-4554
▁нравятся	-4555
рё	-4556
▁Чж	-4557
ik	-4558
дник	-4559
▁22	-4560
▁нового	-4561
бом	-4562
30	-4563
▁присут	-4564
▁ль	-4565
енты	-4566
ффе	-4567
▁Пот	-4568
▁сожалению	-4569
ve	-4570
▁анали	-4571
▁сильнее	-4572
чали	-4573
ig	-4574
▁небольшо	-4575
▁расста	-4576
▁Тру	-4577
▁адвокат	-4578
▁Короле	-4579
▁выяснить	-4580
▁пого	-4581
АР	-4582
▁течение	-4583
▁волнова	-4584
▁платье	-4585
▁планет	-4586
кому	-4587
▁отка	-4588
▁бри	-4589
▁пото	-4590
▁звонок	-4591
нди	-4592
вный	-4593
пно	-4594
верх	-4595
▁Прези	-4596
▁перес	-4597
▁голова	-4598
бан	-4599
▁Много	-4600
менить	-4601
▁напря	-4602
▁очевидно	-4603
▁забыла	-4604
эк	-4605
▁ОН	-4606
▁Забудь	-4607
▁Гор	-4608
▁исклю	-4609
▁Ге	-4610
▁взор	-4611
10	-4612
▁попросил	-4613
▁Пап	-4614
порт	-4615
▁сон	-4616
▁президент	-4617
▁обоих	-4618
▁Ии	-4619
▁вообщето	-4620
▁плевать	-4621
▁дни	-4622
▁повре	-4623
ект	-4624
чены	-4625
▁Ор	-4626
вши	-4627
РЭ	-4628
▁новые	-4629
▁рассла	-4630
ША	-4631
▁узнает	-4632
джер	-4633
▁Помоему	-4634
льную	-4635
▁поехать	-4636
▁Бей	-4637
▁Y	-4638
▁нечто	-4639
▁сюрпри	-4640
▁мысль	-4641
▁дала	-4642
▁тихо	-4643
▁поро	-4644
▁Тони	-4645
▁годы	-4646
цио	-4647
низу	-4648
▁намер	-4649
▁Однажды	-4650
творя	-4651
▁Анд	-4652
▁никак	-4653
▁бь	-4654
▁Нетнет	-4655
▁радио	-4656
лого	-4657
гарет	-4658
os	-4659
▁возьм	-4660
▁поднима	-4661
мин	-4662
лог	-4663
▁Фор	-4664
▁потра	-4665
▁Величество	-4666
тль	-4667
цеп	-4668
▁команда	-4669
тный	-4670
▁вещей	-4671
тенант	-4672
еми	-4673
▁позволь	-4674
▁осу	-4675
▁пози	-4676
▁Пла	-4677
▁Удачи	-4678
▁маму	-4679
▁предлага	-4680
тится	-4681
правда	-4682
мини	-4683
▁кемто	-4684
мента	-4685
▁выйдет	-4686
▁Интересно	-4687
езон	-4688
▁Лей	-4689
▁Гре	-4690
▁разница	-4691
вил	-4692
▁тюрьму	-4693
▁мусо	-4694
стая	-4695
▁пользу	-4696
▁устраи	-4697
▁Твои	-4698
▁маме	-4699
▁Сол	-4700
▁офис	-4701
▁спокойно	-4702
шнего	-4703
рки	-4704
▁Щ	-4705
▁времена	-4706
▁маленькая	-4707
▁Джона	-4708
▁никакой	-4709
▁интересу	-4710
▁забира	-4711
жной	-4712
▁крова	-4713
▁Убира	-4714
ёмся	-4715
▁посе	-4716
▁встречу	-4717
▁откро	-4718
▁Впер	-4719
▁красо	-4720
▁внимания	-4721
▁Посмотрим	-4722
il	-4723
▁воспомина	-4724
▁прогу	-4725
▁горо	-4726
▁виноват	-4727
▁считает	-4728
▁утвер	-4729
▁смогли	-4730
▁сердца	-4731
▁больницу	-4732
▁какаято	-4733
▁капита	-4734
▁ы	-4735
▁чисто	-4736
▁Правильно	-4737
▁проигра	-4738
рел	-4739
жил	-4740
плю	-4741
ффи	-4742
▁распро	-4743
▁прися	-4744
дное	-4745
редо	-4746
▁мужчины	-4747
▁карь	-4748
▁Позвольте	-4749
▁напомина	-4750
рим	-4751
▁записи	-4752
стон	-4753
▁измен	-4754
▁получается	-4755
тии	-4756
▁инстру	-4757
▁цели	-4758
▁жены	-4759
▁секс	-4760
▁наста	-4761
▁вечеринку	-4762
▁подождать	-4763
щает	-4764
▁вышел	-4765
▁Сте	-4766
рн	-4767
бей	-4768
▁правы	-4769
▁особо	-4770
▁взяла	-4771
▁Буду	-4772
▁родителей	-4773
▁попал	-4774
▁узнала	-4775
▁замечательно	-4776
▁Опять	-4777
▁магазин	-4778
▁гражда	-4779
ссии	-4780
▁Например	-4781
ропи	-4782
▁слушать	-4783
уди	-4784
плы	-4785
▁ще	-4786
▁Поздравляю	-4787
лина	-4788
▁следующей	-4789
▁вполне	-4790
▁думают	-4791
▁заметил	-4792
чного	-4793
▁двигаться	-4794
▁чере	-4795
нитесь	-4796
▁заняться	-4797
id	-4798
сю	-4799
рети	-4800
▁билет	-4801
дак	-4802
▁Ал	-4803
ИТ	-4804
▁больнице	-4805
▁повы	-4806
▁согласен	-4807
▁застре	-4808
сна	-4809
вших	-4810
жище	-4811
▁идем	-4812
▁мамой	-4813
▁хорошее	-4814
▁безум	-4815
▁пя	-4816
держать	-4817
▁деду	-4818
▁идут	-4819
▁разум	-4820
лажда	-4821
шинство	-4822
▁ищу	-4823
▁Чувак	-4824
нимание	-4825
▁Успокойся	-4826
▁огонь	-4827
100	-4828
▁ДНК	-4829
▁Фа	-4830
▁написал	-4831
▁лаборато	-4832
▁Говоря	-4833
▁скажет	-4834
▁делом	-4835
▁срав	-4836
▁следова	-4837
▁головы	-4838
▁извини	-4839
▁шпи	-4840
▁уехать	-4841
тила	-4842
▁ребёнок	-4843
рица	-4844
▁открыть	-4845
▁девочки	-4846
▁Це	-4847
▁найдем	-4848
▁Кого	-4849
▁когдалибо	-4850
▁Же	-4851
▁Ёто	-4852
тельным	-4853
йт	-4854
льзо	-4855
▁узнали	-4856
▁силу	-4857
▁Иису	-4858
дные	-4859
▁команду	-4860
▁новая	-4861
ору	-4862
▁вышло	-4863
вец	-4864
▁умо	-4865
▁уто	-4866
▁качестве	-4867
▁девя	-4868
▁участ	-4869
▁опасно	-4870
▁увидишь	-4871
▁поняли	-4872
тоя	-4873
▁Пло	-4874
▁Сэ	-4875
няли	-4876
▁Звучит	-4877
▁пр	-4878
РО	-4879
▁Видите	-4880
▁ть	-4881
▁представи	-4882
РЕ	-4883
▁краса	-4884
▁Вста	-4885
▁Большое	-4886
щина	-4887
▁доступ	-4888
ботать	-4889
▁28	-4890
▁коли	-4891
▁воен	-4892
▁какоето	-4893
чили	-4894
▁посы	-4895
▁целый	-4896
▁Готов	-4897
▁книгу	-4898
▁народ	-4899
▁воск	-4900
▁обед	-4901
▁дороге	-4902
▁раскры	-4903
▁Человек	-4904
▁коми	-4905
▁многое	-4906
ждую	-4907
▁Ван	-4908
мыш	-4909
▁Пять	-4910
версит	-4911
▁адрес	-4912
▁вза	-4913
▁показания	-4914
▁лучшее	-4915
▁опасности	-4916
▁шаг	-4917
▁Кейт	-4918
▁Джули	-4919
▁Ос	-4920
▁Быстро	-4921
▁побери	-4922
▁еди	-4923
▁выну	-4924
влен	-4925
▁Шар	-4926
▁позвонил	-4927
▁Дэй	-4928
▁доказать	-4929
▁ПО	-4930
сами	-4931
▁жду	-4932
▁веришь	-4933
▁ног	-4934
эро	-4935
▁разби	-4936
жены	-4937
▁Сью	-4938
▁Алек	-4939
▁Приятно	-4940
▁увидимся	-4941
вард	-4942
емон	-4943
▁Вто	-4944
▁Ричард	-4945
▁блин	-4946
▁Парень	-4947
▁подруга	-4948
сим	-4949
▁запо	-4950
▁джен	-4951
▁всём	-4952
▁эмо	-4953
чательно	-4954
ходил	-4955
стретимся	-4956
▁новое	-4957
▁единственная	-4958
лип	-4959
▁землю	-4960
лчи	-4961
▁отнош	-4962
▁захочешь	-4963
▁испыта	-4964
▁мамы	-4965
pa	-4966
▁понравилось	-4967
▁Сделай	-4968
▁продолжать	-4969
▁кана	-4970
▁повед	-4971
▁послуша	-4972
койтесь	-4973
шель	-4974
▁Кларк	-4975
▁попросить	-4976
▁опу	-4977
▁трубку	-4978
зм	-4979
▁Разу	-4980
▁полага	-4981
роваться	-4982
▁фер	-4983
▁прият	-4984
▁мнение	-4985
▁мон	-4986
▁Заме	-4987
шал	-4988
▁таб	-4989
▁остался	-4990
▁хорошего	-4991
▁беремен	-4992
▁любят	-4993
▁танце	-4994
▁кстати	-4995
▁Брось	-4996
▁печа	-4997
▁лей	-4998
▁обраща	-4999
моби	-5000
▁рассказала	-5001
▁24	-5002
▁свидетель	-5003
▁Гри	-5004
стный	-5005
▁студ	-5006
МН	-5007
сишь	-5008
▁Фу	-5009
рому	-5010
▁спаса	-5011
тина	-5012
воему	-5013
▁телеви	-5014
▁Ён	-5015
▁снаружи	-5016
▁отдох	-5017
▁Хм	-5018
▁Тихо	-5019
▁написано	-5020
▁коп	-5021
▁уходить	-5022
ина	-5023
▁физи	-5024
▁Ад	-5025
▁Кому	-5026
▁скажите	-5027
▁стране	-5028
хие	-5029
▁чувствовать	-5030
вок	-5031
▁отдать	-5032
▁ничто	-5033
▁Эмили	-5034
▁опозда	-5035
▁присла	-5036
▁Шо	-5037
▁пообе	-5038
▁самоу	-5039
▁любить	-5040
▁появля	-5041
▁Уэ	-5042
▁госу	-5043
▁вернется	-5044
жнему	-5045
▁кров	-5046
▁считаешь	-5047
▁отправ	-5048
▁пусты	-5049
▁направ	-5050
▁каби	-5051
ut	-5052
нской	-5053
▁планы	-5054
▁Молодец	-5055
▁воду	-5056
▁Наша	-5057
▁Муж	-5058
▁поу	-5059
▁позволю	-5060
цент	-5061
фон	-5062
▁Любо	-5063
бно	-5064
лк	-5065
▁управ	-5066
сная	-5067
▁США	-5068
▁сос	-5069
▁кончено	-5070
oc	-5071
▁представ	-5072
▁ребят	-5073
▁волшеб	-5074
▁дро	-5075
▁задума	-5076
гон	-5077
мати	-5078
энди	-5079
шили	-5080
▁память	-5081
рори	-5082
▁рука	-5083
дняя	-5084
кции	-5085
цуз	-5086
▁душе	-5087
▁земле	-5088
шний	-5089
бет	-5090
праши	-5091
▁Вау	-5092
▁прочита	-5093
▁Вчера	-5094
▁благодаря	-5095
▁твоему	-5096
▁перезво	-5097
▁блядь	-5098
пот	-5099
ницей	-5100
чное	-5101
▁запом	-5102
▁бас	-5103
▁столь	-5104
зывай	-5105
▁Слава	-5106
кал	-5107
▁первая	-5108
▁Джесси	-5109
▁недостаточно	-5110
▁существо	-5111
▁тон	-5112
▁дядя	-5113
▁пиро	-5114
▁клянусь	-5115
пле	-5116
▁кончи	-5117
▁например	-5118
почка	-5119
▁V	-5120
▁роль	-5121
▁элект	-5122
▁Совсем	-5123
▁вре	-5124
▁умру	-5125
симо	-5126
▁ошибка	-5127
▁бросил	-5128
▁восхи	-5129
▁Наши	-5130
▁повторя	-5131
льном	-5132
▁моём	-5133
▁длин	-5134
ёс	-5135
▁Однако	-5136
зан	-5137
▁профессиона	-5138
▁Наконец	-5139
рев	-5140
скать	-5141
pha	-5142
▁подходит	-5143
▁круп	-5144
▁бесс	-5145
▁Эдди	-5146
▁оставь	-5147
▁Внимание	-5148
▁закончится	-5149
▁красивая	-5150
▁видно	-5151
▁голу	-5152
▁Здравствуй	-5153
▁постра	-5154
ременно	-5155
▁туалет	-5156
вана	-5157
сыпа	-5158
ями	-5159
ka	-5160
▁рук	-5161
жество	-5162
▁приказ	-5163
▁получше	-5164
▁разбира	-5165
▁пору	-5166
▁имеете	-5167
▁умр	-5168
▁нали	-5169
▁деть	-5170
▁Билли	-5171
▁направля	-5172
думы	-5173
сило	-5174
фри	-5175
хнет	-5176
нин	-5177
▁привлека	-5178
▁собираемся	-5179
▁Дела	-5180
▁250	-5181
▁щ	-5182
▁Некоторые	-5183
пустили	-5184
▁комп	-5185
▁восемь	-5186
зды	-5187
▁Анна	-5188
▁сре	-5189
▁Почти	-5190
влечь	-5191
▁особен	-5192
ляй	-5193
лился	-5194
теле	-5195
лён	-5196
▁Держись	-5197
летки	-5198
▁вышла	-5199
дке	-5200
вании	-5201
▁мужчин	-5202
▁заболе	-5203
голо	-5204
бка	-5205
▁помог	-5206
▁закончить	-5207
▁Фред	-5208
▁Марк	-5209
▁забер	-5210
▁разобраться	-5211
▁Хэ	-5212
▁риско	-5213
лиза	-5214
▁прино	-5215
▁докто	-5216
▁документы	-5217
▁шка	-5218
▁команды	-5219
▁часы	-5220
▁фотографии	-5221
ждает	-5222
▁убила	-5223
▁Гру	-5224
ИН	-5225
▁прокуро	-5226
▁хорошим	-5227
0000	-5228
▁МЕ	-5229
▁Вме	-5230
▁жертвы	-5231
▁заканчи	-5232
рук	-5233
▁мета	-5234
▁авари	-5235
▁персона	-5236
рец	-5237
▁Бан	-5238
▁королев	-5239
▁Слы	-5240
▁книги	-5241
▁поступи	-5242
ёшься	-5243
▁Энди	-5244
▁Выгля	-5245
▁кош	-5246
▁Жаль	-5247
▁внизу	-5248
вее	-5249
ленной	-5250
▁какието	-5251
▁весьма	-5252
▁чай	-5253
▁детьми	-5254
▁Офи	-5255
жных	-5256
▁разговаривать	-5257
писы	-5258
▁специально	-5259
пов	-5260
▁Расскажи	-5261
руют	-5262
тий	-5263
▁срочно	-5264
▁ответить	-5265
▁стоя	-5266
▁Хей	-5267
▁смотрю	-5268
▁пришло	-5269
▁Пойду	-5270
▁финан	-5271
цам	-5272
ету	-5273
▁Дорогая	-5274
▁грузови	-5275
▁J	-5276
▁чь	-5277
▁пойм	-5278
▁отцу	-5279
▁Будем	-5280
лома	-5281
ген	-5282
ному	-5283
▁похожи	-5284
▁Зво	-5285
▁спросил	-5286
тое	-5287
▁волнует	-5288
11	-5289
ПН	-5290
▁учитель	-5291
▁большие	-5292
▁одному	-5293
▁болта	-5294
▁потеряли	-5295
▁Эр	-5296
▁заво	-5297
▁Дженни	-5298
▁млад	-5299
чё	-5300
▁ближе	-5301
▁Отпусти	-5302
делить	-5303
▁сделку	-5304
▁лес	-5305
▁язык	-5306
▁Насколько	-5307
▁Соб	-5308
рито	-5309
дование	-5310
▁взглянуть	-5311
▁иск	-5312
пети	-5313
▁женщиной	-5314
РУ	-5315
▁останавли	-5316
мочка	-5317
▁вов	-5318
▁произво	-5319
▁кло	-5320
▁отра	-5321
▁внутрь	-5322
▁аль	-5323
▁души	-5324
▁Карл	-5325
шина	-5326
▁винов	-5327
нность	-5328
▁плохой	-5329
▁Хороший	-5330
жны	-5331
▁насле	-5332
гам	-5333
▁Томми	-5334
▁Шу	-5335
▁влия	-5336
▁сове	-5337
▁вампи	-5338
▁отвер	-5339
▁первого	-5340
▁телефону	-5341
▁бит	-5342
прово	-5343
▁Бобби	-5344
▁Стойте	-5345
▁НА	-5346
▁группы	-5347
▁суда	-5348
▁черто	-5349
▁Сим	-5350
▁000	-5351
▁самых	-5352
▁Был	-5353
читься	-5354
▁уйду	-5355
▁избавиться	-5356
▁Вся	-5357
▁Осторожно	-5358
▁ухожу	-5359
▁пошёл	-5360
вел	-5361
▁Жиз	-5362
▁русс	-5363
▁худ	-5364
▁король	-5365
▁Луи	-5366
▁такси	-5367
бур	-5368
▁Бон	-5369
енность	-5370
▁Обо	-5371
▁Слу	-5372
▁потрясаю	-5373
▁обещал	-5374
▁Поговори	-5375
▁свали	-5376
▁Энд	-5377
▁Такое	-5378
▁эффе	-5379
▁запре	-5380
▁получишь	-5381
▁встречаться	-5382
▁гром	-5383
▁юри	-5384
▁переб	-5385
oo	-5386
▁Стоп	-5387
▁шеф	-5388
▁креп	-5389
▁чегото	-5390
люс	-5391
▁почи	-5392
▁посмотрите	-5393
▁говорим	-5394
▁Неб	-5395
▁Суд	-5396
▁взрос	-5397
▁передать	-5398
▁пойдет	-5399
▁страны	-5400
▁рекла	-5401
▁Дет	-5402
▁Джонни	-5403
▁подходя	-5404
▁счастлива	-5405
▁вверх	-5406
▁ключи	-5407
▁приготови	-5408
▁Норма	-5409
▁лета	-5410
дании	-5411
▁изо	-5412
▁Помоги	-5413
▁диа	-5414
▁войти	-5415
▁Тор	-5416
ческую	-5417
ряс	-5418
▁бросить	-5419
▁рай	-5420
▁выходит	-5421
▁наказа	-5422
▁главное	-5423
▁борь	-5424
дайте	-5425
▁th	-5426
▁удовольствием	-5427
▁готови	-5428
ланд	-5429
▁вну	-5430
▁спосо	-5431
бки	-5432
▁штука	-5433
▁снять	-5434
стую	-5435
▁плем	-5436
▁шля	-5437
▁Говорят	-5438
▁Тер	-5439
▁Убери	-5440
▁жал	-5441
▁сексом	-5442
ждь	-5443
пей	-5444
▁копи	-5445
▁ситуации	-5446
▁такими	-5447
▁опа	-5448
▁ся	-5449
▁Лили	-5450
▁справ	-5451
енности	-5452
▁препо	-5453
ковник	-5454
▁аэро	-5455
▁разы	-5456
▁уничтожить	-5457
▁Богу	-5458
▁Дете	-5459
▁море	-5460
▁образ	-5461
▁оскор	-5462
▁перево	-5463
сюду	-5464
▁идио	-5465
▁воро	-5466
▁приехали	-5467
▁Фин	-5468
▁Дин	-5469
чила	-5470
▁смотрите	-5471
▁попу	-5472
гас	-5473
▁другая	-5474
▁Глу	-5475
тру	-5476
берусь	-5477
▁наконецто	-5478
▁священ	-5479
▁кольцо	-5480
мах	-5481
▁Блин	-5482
▁обеспе	-5483
мие	-5484
лево	-5485
▁жертва	-5486
▁клиент	-5487
номи	-5488
стров	-5489
▁смеш	-5490
▁Иначе	-5491
▁мозг	-5492
▁тео	-5493
▁клуб	-5494
▁Затем	-5495
▁награ	-5496
нера	-5497
▁приходится	-5498
▁реа	-5499
лением	-5500
▁трево	-5501
жник	-5502
▁изна	-5503
▁Бл	-5504
▁незна	-5505
▁Кэро	-5506
▁читать	-5507
▁автомоби	-5508
▁зага	-5509
▁бое	-5510
рай	-5511
▁шутка	-5512
▁сц	-5513
▁прием	-5514
▁добры	-5515
▁работаешь	-5516
ссия	-5517
ый	-5518
▁бежать	-5519
ваны	-5520
вёл	-5521
▁война	-5522
альный	-5523
редото	-5524
▁квартиру	-5525
▁потеряла	-5526
▁Бет	-5527
днее	-5528
▁рем	-5529
▁самые	-5530
▁сожалею	-5531
▁двоих	-5532
клад	-5533
▁ошибку	-5534
вис	-5535
▁сделай	-5536
строй	-5537
▁притворя	-5538
▁вернулись	-5539
никами	-5540
вная	-5541
арь	-5542
чко	-5543
тти	-5544
льзу	-5545
▁разво	-5546
▁комуто	-5547
▁костюм	-5548
▁некоторы	-5549
нку	-5550
▁возможности	-5551
▁Покажи	-5552
▁операции	-5553
▁украл	-5554
жида	-5555
шими	-5556
ствуют	-5557
▁Президент	-5558
лам	-5559
нулись	-5560
кор	-5561
▁тысячи	-5562
▁беспла	-5563
▁втор	-5564
▁учени	-5565
▁застря	-5566
▁некото	-5567
▁доказательства	-5568
▁займ	-5569
надцать	-5570
▁эт	-5571
▁многие	-5572
▁скажете	-5573
▁легче	-5574
прежнему	-5575
▁принадлежит	-5576
▁увидела	-5577
▁наве	-5578
▁устал	-5579
шила	-5580
▁Особ	-5581
▁Слыша	-5582
▁выбро	-5583
▁Спас	-5584
▁Обычно	-5585
▁молоды	-5586
▁помогает	-5587
▁гля	-5588
▁света	-5589
▁осозна	-5590
▁Билл	-5591
▁слабо	-5592
▁отде	-5593
▁Честно	-5594
зен	-5595
▁ситуация	-5596
тник	-5597
▁убира	-5598
▁обсудить	-5599
▁трех	-5600
▁журна	-5601
▁закончили	-5602
▁пери	-5603
▁засе	-5604
льям	-5605
блем	-5606
▁психи	-5607
▁принце	-5608
▁забрал	-5609
риться	-5610
валось	-5611
▁появился	-5612
▁оправ	-5613
нтересо	-5614
▁оказался	-5615
жная	-5616
▁пользо	-5617
▁Постой	-5618
▁играет	-5619
▁неважно	-5620
20	-5621
▁джентль	-5622
▁лову	-5623
▁принимать	-5624
▁добраться	-5625
▁Садись	-5626
▁жил	-5627
▁короля	-5628
эйн	-5629
▁бол	-5630
▁отказыва	-5631
ерка	-5632
▁стату	-5633
▁одежду	-5634
▁главный	-5635
▁каждую	-5636
▁достать	-5637
клять	-5638
тельных	-5639
▁раст	-5640
▁глазах	-5641
▁пля	-5642
▁принести	-5643
▁дока	-5644
▁лест	-5645
▁Разумеется	-5646
▁Счастли	-5647
пыты	-5648
▁гал	-5649
▁информация	-5650
▁Бере	-5651
▁Повер	-5652
хэ	-5653
▁ждут	-5654
▁пяти	-5655
▁Круто	-5656
ровала	-5657
▁моро	-5658
▁Ум	-5659
эрри	-5660
▁помогать	-5661
гка	-5662
▁запах	-5663
бься	-5664
▁террори	-5665
▁поменя	-5666
▁Господа	-5667
▁Эрик	-5668
▁Настоя	-5669
▁помните	-5670
▁пожела	-5671
клон	-5672
▁Неве	-5673
▁новой	-5674
▁Клянусь	-5675
▁кори	-5676
▁причины	-5677
▁контак	-5678
▁убийстве	-5679
▁Господь	-5680
▁компания	-5681
кол	-5682
▁имена	-5683
▁защищать	-5684
▁платить	-5685
▁Весь	-5686
▁Взгля	-5687
▁Серьёзно	-5688
▁рассказыва	-5689
▁родствен	-5690
дие	-5691
▁ждал	-5692
▁вино	-5693
тку	-5694
РА	-5695
сколько	-5696
таки	-5697
стях	-5698
▁r	-5699
▁вовремя	-5700
▁закончил	-5701
▁Убий	-5702
▁группа	-5703
▁поступа	-5704
мети	-5705
▁непро	-5706
▁Дан	-5707
▁Откры	-5708
▁Стэн	-5709
▁баксов	-5710
▁отпечат	-5711
▁предложить	-5712
кса	-5713
▁настоящее	-5714
▁убедиться	-5715
мана	-5716
ия	-5717
зывали	-5718
▁бизне	-5719
▁полный	-5720
▁компьютер	-5721
▁мимо	-5722
▁карма	-5723
▁столк	-5724
▁пытались	-5725
▁цело	-5726
▁стоять	-5727
▁девушкой	-5728
▁собираетесь	-5729
▁искал	-5730
менты	-5731
▁университ	-5732
▁вода	-5733
▁мел	-5734
▁самым	-5735
olor	-5736
рур	-5737
▁способен	-5738
▁Первый	-5739
▁темно	-5740
кров	-5741
▁ложь	-5742
рный	-5743
▁едем	-5744
▁Такой	-5745
▁крас	-5746
▁разви	-5747
▁реак	-5748
вью	-5749
▁Роберт	-5750
▁сигнал	-5751
▁запас	-5752
тился	-5753
енси	-5754
▁Объ	-5755
▁писать	-5756
▁глупы	-5757
fscy	-5758
лант	-5759
▁Хэн	-5760
вной	-5761
▁двер	-5762
▁Лар	-5763
▁смысла	-5764
бок	-5765
▁комната	-5766
▁it	-5767
ними	-5768
▁смей	-5769
▁нор	-5770
зви	-5771
▁сосед	-5772
гию	-5773
▁вру	-5774
▁сюрприз	-5775
▁Неплохо	-5776
▁нервни	-5777
шаю	-5778
дился	-5779
▁упомина	-5780
▁разде	-5781
▁выго	-5782
▁испорти	-5783
▁Голо	-5784
▁боли	-5785
▁смотрел	-5786
щал	-5787
▁провед	-5788
▁симпати	-5789
▁Чув	-5790
▁Отличная	-5791
кола	-5792
▁знамени	-5793
▁яйца	-5794
▁новость	-5795
▁остальных	-5796
роят	-5797
▁Отой	-5798
▁проник	-5799
ap	-5800
▁факт	-5801
▁наверху	-5802
▁Понимаю	-5803
▁ны	-5804
пая	-5805
▁вовсе	-5806
▁дайте	-5807
говорю	-5808
▁первое	-5809
▁Смер	-5810
жением	-5811
▁Кли	-5812
ЕК	-5813
▁Высо	-5814
▁Кин	-5815
▁Очевидно	-5816
▁Клэр	-5817
▁англий	-5818
▁приходит	-5819
▁отсле	-5820
▁использовал	-5821
▁конф	-5822
▁Кристи	-5823
▁знак	-5824
▁Руки	-5825
рогой	-5826
▁био	-5827
▁суп	-5828
▁Сме	-5829
кта	-5830
▁оставила	-5831
▁Сти	-5832
▁уга	-5833
▁окно	-5834
▁примерно	-5835
▁покой	-5836
слуши	-5837
rs	-5838
▁Дети	-5839
▁здоровь	-5840
ьер	-5841
▁песню	-5842
▁Начина	-5843
▁риск	-5844
▁ер	-5845
▁фир	-5846
▁фон	-5847
▁эм	-5848
▁Лео	-5849
бб	-5850
▁последни	-5851
стями	-5852
▁Нор	-5853
▁кабинет	-5854
няюсь	-5855
▁проду	-5856
▁Уходи	-5857
▁выда	-5858
▁любила	-5859
▁офисе	-5860
новь	-5861
▁нос	-5862
▁Дю	-5863
▁мн	-5864
ent	-5865
▁желание	-5866
▁государ	-5867
▁неприятности	-5868
▁привез	-5869
▁беспокойся	-5870
▁мело	-5871
делать	-5872
▁Гей	-5873
гляды	-5874
кция	-5875
▁ула	-5876
▁Хотел	-5877
▁напу	-5878
вшись	-5879
▁называть	-5880
▁значи	-5881
▁500	-5882
трин	-5883
▁Люси	-5884
▁Джефф	-5885
▁ими	-5886
▁руба	-5887
▁данные	-5888
▁Сво	-5889
крови	-5890
▁называют	-5891
▁большую	-5892
уз	-5893
ord	-5894
▁стрелять	-5895
▁Особенно	-5896
▁НьюЙорк	-5897
▁везде	-5898
▁проте	-5899
▁Видимо	-5900
желе	-5901
тельств	-5902
▁террито	-5903
▁зайти	-5904
▁несколь	-5905
гнуть	-5906
▁Класс	-5907
довал	-5908
▁днем	-5909
ствительно	-5910
веди	-5911
▁многих	-5912
бов	-5913
▁пала	-5914
▁выбрал	-5915
хой	-5916
ляться	-5917
▁взгляд	-5918
льт	-5919
▁Мэй	-5920
▁Ммм	-5921
▁внеза	-5922
▁попрежнему	-5923
▁ублюдок	-5924
▁солдат	-5925
▁посколь	-5926
▁черту	-5927
возь	-5928
▁даст	-5929
▁полю	-5930
▁матерью	-5931
▁Мин	-5932
▁старик	-5933
▁Должен	-5934
▁Адам	-5935
12	-5936
▁офицер	-5937
▁Тех	-5938
▁Марти	-5939
▁отврати	-5940
лёт	-5941
обо	-5942
рно	-5943
▁едва	-5944
▁дья	-5945
▁увижу	-5946
▁шутишь	-5947
▁долг	-5948
▁настоящая	-5949
▁бю	-5950
▁случиться	-5951
мос	-5952
▁поверь	-5953
▁рассчиты	-5954
жным	-5955
ОЛ	-5956
▁веща	-5957
▁кури	-5958
▁Отдай	-5959
▁исправить	-5960
ver	-5961
▁опазды	-5962
уи	-5963
вета	-5964
▁боишься	-5965
▁ито	-5966
▁воспользо	-5967
рип	-5968
переди	-5969
▁треть	-5970
▁Испо	-5971
чаешь	-5972
рус	-5973
▁оружия	-5974
▁изобра	-5975
▁in	-5976
▁соответ	-5977
▁передума	-5978
пет	-5979
ванием	-5980
тать	-5981
бит	-5982
▁решить	-5983
▁Вол	-5984
▁записа	-5985
▁уе	-5986
▁Коман	-5987
бые	-5988
дая	-5989
мок	-5990
▁Брат	-5991
▁стари	-5992
дию	-5993
▁Продолжай	-5994
▁выглядеть	-5995
▁Хоть	-5996
тую	-5997
▁превра	-5998
▁потерять	-5999
▁Агент	-6000
▁вдох	-6001
▁своём	-6002
▁возвращаться	-6003
▁подчи	-6004
▁низ	-6005
▁начинается	-6006
▁предпочита	-6007
▁Лос	-6008
▁пойдём	-6009
рение	-6010
▁подвер	-6011
нете	-6012
▁самолет	-6013
стоит	-6014
гому	-6015
ственная	-6016
▁Две	-6017
▁Вперёд	-6018
▁подписа	-6019
▁Джин	-6020
пай	-6021
▁Жизнь	-6022
▁Ненави	-6023
етаки	-6024
клятье	-6025
▁придёт	-6026
▁выбраться	-6027
зии	-6028
▁нака	-6029
шет	-6030
▁Проблем	-6031
▁вечеринка	-6032
▁Тэ	-6033
лектри	-6034
▁разные	-6035
▁Мило	-6036
▁серия	-6037
▁спустя	-6038
▁идеально	-6039
лера	-6040
▁молодой	-6041
▁войну	-6042
▁кажды	-6043
▁справля	-6044
ненно	-6045
▁Повто	-6046
▁Патри	-6047
пон	-6048
петь	-6049
зем	-6050
▁Оо	-6051
▁Хол	-6052
▁Милая	-6053
▁пови	-6054
тельного	-6055
▁преврати	-6056
нологи	-6057
печа	-6058
▁Джерри	-6059
▁счёт	-6060
ЮЙ	-6061
▁60	-6062
▁расследование	-6063
▁Оставьте	-6064
▁невероятно	-6065
▁Крис	-6066
АЛ	-6067
▁пересе	-6068
хал	-6069
ейс	-6070
▁Мое	-6071
стоящему	-6072
мат	-6073
дами	-6074
▁победить	-6075
▁достой	-6076
▁жо	-6077
▁отсут	-6078
дли	-6079
▁идешь	-6080
80	-6081
▁Одно	-6082
▁фами	-6083
▁звали	-6084
▁улыба	-6085
▁головой	-6086
креп	-6087
вёз	-6088
▁изде	-6089
▁уши	-6090
▁Фер	-6091
▁крово	-6092
▁мертва	-6093
мут	-6094
▁воскрес	-6095
бель	-6096
▁Стар	-6097
▁Рождество	-6098
▁участи	-6099
под	-6100
▁надое	-6101
▁спусти	-6102
▁собиралась	-6103
вато	-6104
▁выпуск	-6105
▁фанта	-6106
▁алкого	-6107
▁Хью	-6108
▁обсужда	-6109
▁сбежать	-6110
▁работала	-6111
▁Кам	-6112
▁Малень	-6113
▁прекрати	-6114
вшего	-6115
▁обстоя	-6116
▁запись	-6117
▁мальчика	-6118
▁земли	-6119
▁поехали	-6120
ёк	-6121
жена	-6122
ющая	-6123
▁веду	-6124
▁Дорогой	-6125
▁подозреваемы	-6126
▁спал	-6127
▁испыты	-6128
▁частью	-6129
▁север	-6130
▁владе	-6131
▁серьёз	-6132
циали	-6133
▁детекти	-6134
▁уте	-6135
▁Возвраща	-6136
▁Вла	-6137
▁работают	-6138
▁Ужас	-6139
▁идеи	-6140
▁Детектив	-6141
▁смотря	-6142
▁справиться	-6143
▁назвал	-6144
ложение	-6145
чными	-6146
вия	-6147
▁наверх	-6148
йоне	-6149
▁помоги	-6150
▁Мно	-6151
▁захвати	-6152
▁вновь	-6153
вшие	-6154
седа	-6155
▁душу	-6156
▁началь	-6157
▁начало	-6158
▁Дра	-6159
▁Спи	-6160
▁попы	-6161
ами	-6162
хар	-6163
▁состояние	-6164
рий	-6165
▁лучшая	-6166
▁зано	-6167
казали	-6168
▁другими	-6169
▁обой	-6170
щество	-6171
▁месье	-6172
▁ждёт	-6173
▁поеду	-6174
▁жут	-6175
▁отдал	-6176
▁придурок	-6177
ставлю	-6178
▁устроить	-6179
▁ушли	-6180
▁поблагода	-6181
▁Беги	-6182
▁Чтонибудь	-6183
▁Ээ	-6184
▁Джер	-6185
▁Супер	-6186
ковь	-6187
порта	-6188
▁спит	-6189
▁двой	-6190
▁схвати	-6191
yl	-6192
ьше	-6193
ик	-6194
▁обвинения	-6195
▁демо	-6196
▁жива	-6197
нности	-6198
▁Шта	-6199
▁солнце	-6200
ru	-6201
▁испуга	-6202
▁Ры	-6203
йс	-6204
▁явно	-6205
▁казалось	-6206
ссу	-6207
▁похожа	-6208
пель	-6209
▁извин	-6210
▁поймать	-6211
hi	-6212
▁мастер	-6213
▁Неважно	-6214
нда	-6215
вига	-6216
▁сексуально	-6217
▁кусо	-6218
▁узнаю	-6219
▁написать	-6220
▁нена	-6221
▁рак	-6222
▁заплатить	-6223
▁Смо	-6224
▁Дом	-6225
▁моги	-6226
▁порядок	-6227
▁человеку	-6228
▁уехал	-6229
▁внутрен	-6230
▁рода	-6231
▁отклю	-6232
▁останусь	-6233
▁Мм	-6234
ЯР	-6235
▁брать	-6236
▁ребенком	-6237
▁плен	-6238
▁еды	-6239
▁зли	-6240
▁организа	-6241
▁следовало	-6242
▁команде	-6243
▁труп	-6244
▁увели	-6245
▁первую	-6246
▁пытаешься	-6247
▁Люблю	-6248
▁Попробуй	-6249
▁заинтересо	-6250
▁повсюду	-6251
▁вашему	-6252
▁слегка	-6253
▁компанию	-6254
▁которому	-6255
ставьте	-6256
ёг	-6257
▁сделано	-6258
вица	-6259
▁Игра	-6260
▁хлеб	-6261
▁останов	-6262
▁сбежал	-6263
▁жене	-6264
нке	-6265
ступить	-6266
▁Спе	-6267
▁зале	-6268
▁следы	-6269
▁кровью	-6270
▁воспоминания	-6271
▁23	-6272
▁руками	-6273
▁нравишься	-6274
▁остались	-6275
▁Достаточно	-6276
▁ука	-6277
▁важное	-6278
▁спаль	-6279
▁сомневаюсь	-6280
мить	-6281
лений	-6282
▁Джейк	-6283
▁кучу	-6284
▁Мальчи	-6285
▁собака	-6286
▁эпи	-6287
▁перео	-6288
▁отправить	-6289
▁станешь	-6290
тела	-6291
▁встречались	-6292
▁Сви	-6293
▁перестань	-6294
▁плохого	-6295
бился	-6296
▁Нач	-6297
▁уровень	-6298
▁of	-6299
▁Раньше	-6300
▁сообщить	-6301
зой	-6302
бая	-6303
▁самоубий	-6304
▁Софи	-6305
▁сказано	-6306
▁Час	-6307
▁замет	-6308
▁поми	-6309
бую	-6310
▁зажи	-6311
▁разра	-6312
▁чертовски	-6313
▁двумя	-6314
▁песня	-6315
▁стыдно	-6316
ентом	-6317
▁неизве	-6318
▁Между	-6319
КА	-6320
▁решения	-6321
▁глазами	-6322
лс	-6323
▁здоров	-6324
▁значения	-6325
▁поиска	-6326
▁принял	-6327
▁напар	-6328
▁выходные	-6329
таль	-6330
▁получит	-6331
▁рестора	-6332
ОВ	-6333
▁He	-6334
▁лаг	-6335
▁посети	-6336
▁част	-6337
▁Вставай	-6338
▁опреде	-6339
жайте	-6340
▁сми	-6341
▁здание	-6342
▁Стре	-6343
пок	-6344
▁власти	-6345
▁приехала	-6346
▁захочет	-6347
ce	-6348
где	-6349
▁вес	-6350
▁смотришь	-6351
юз	-6352
▁дает	-6353
▁Обещаю	-6354
▁романти	-6355
▁подготов	-6356
▁лицом	-6357
▁встретил	-6358
▁ход	-6359
▁прошла	-6360
▁возле	-6361
▁музыку	-6362
▁Фил	-6363
комен	-6364
▁Тан	-6365
гно	-6366
зил	-6367
▁печень	-6368
▁провали	-6369
▁Винс	-6370
▁ответственность	-6371
▁связан	-6372
▁система	-6373
▁пита	-6374
▁захва	-6375
▁Стивен	-6376
▁приво	-6377
мотрел	-6378
▁арен	-6379
нится	-6380
▁когдато	-6381
▁заставил	-6382
▁дурац	-6383
▁отличный	-6384
▁Думаете	-6385
▁Назад	-6386
едине	-6387
▁начнем	-6388
▁послал	-6389
▁Мартин	-6390
▁каз	-6391
двига	-6392
▁рассказывать	-6393
рена	-6394
мум	-6395
▁Дево	-6396
▁выбрать	-6397
▁Уверена	-6398
▁телефона	-6399
яю	-6400
▁поскольку	-6401
ппи	-6402
▁решать	-6403
▁поезд	-6404
▁покры	-6405
▁беременна	-6406
дным	-6407
▁подругому	-6408
ствии	-6409
▁зависит	-6410
▁страшного	-6411
▁Лай	-6412
▁акти	-6413
▁здоровье	-6414
вот	-6415
▁досто	-6416
▁ушёл	-6417
▁сестры	-6418
▁федера	-6419
оте	-6420
▁прошлое	-6421
▁Рассла	-6422
▁отдела	-6423
▁руко	-6424
ht	-6425
ксу	-6426
▁обязан	-6427
▁ссо	-6428
вятся	-6429
▁площа	-6430
▁господи	-6431
лям	-6432
▁фур	-6433
▁определенно	-6434
▁имен	-6435
▁сходить	-6436
▁гей	-6437
рда	-6438
▁ищем	-6439
▁сохранить	-6440
▁оставлю	-6441
▁Лан	-6442
▁куча	-6443
▁продать	-6444
▁след	-6445
▁лиф	-6446
▁Краси	-6447
▁заве	-6448
▁Открой	-6449
тали	-6450
▁номера	-6451
▁опыт	-6452
жись	-6453
▁квартире	-6454
▁сработает	-6455
▁бог	-6456
▁инспе	-6457
▁отпу	-6458
▁Райан	-6459
рыв	-6460
▁зато	-6461
▁урод	-6462
▁моими	-6463
▁отчет	-6464
em	-6465
рила	-6466
пку	-6467
▁информации	-6468
▁знако	-6469
торый	-6470
▁Чжин	-6471
▁сей	-6472
▁забрали	-6473
▁есте	-6474
▁порт	-6475
▁Шон	-6476
▁прекрасный	-6477
стый	-6478
парта	-6479
▁микро	-6480
▁причин	-6481
▁развед	-6482
▁товари	-6483
ровка	-6484
▁Вроде	-6485
▁Прошло	-6486
▁Вашинг	-6487
▁временем	-6488
▁Пет	-6489
скому	-6490
▁будущем	-6491
ждаю	-6492
▁талант	-6493
▁буква	-6494
▁ино	-6495
▁300	-6496
▁постели	-6497
▁хво	-6498
▁видит	-6499
▁официально	-6500
▁Странно	-6501
▁организо	-6502
▁смея	-6503
▁Угу	-6504
▁кровать	-6505
▁клиента	-6506
▁Гэ	-6507
▁худо	-6508
вов	-6509
▁Ура	-6510
дует	-6511
ставили	-6512
▁Уилл	-6513
фици	-6514
мор	-6515
▁Робин	-6516
▁пожени	-6517
▁единственное	-6518
▁хер	-6519
▁пожар	-6520
▁рез	-6521
▁Довольно	-6522
▁Мир	-6523
тельность	-6524
▁выхо	-6525
▁голосо	-6526
▁напом	-6527
▁понастоящему	-6528
жней	-6529
▁цве	-6530
▁маленькой	-6531
▁любовью	-6532
▁Деву	-6533
▁корот	-6534
▁шери	-6535
йдёшь	-6536
рили	-6537
▁герой	-6538
▁проще	-6539
▁судьба	-6540
▁Убирайся	-6541
▁экза	-6542
▁побли	-6543
▁центре	-6544
▁безумие	-6545
оз	-6546
▁поставить	-6547
▁ца	-6548
▁прем	-6549
▁ближай	-6550
▁Ся	-6551
▁зе	-6552
▁наи	-6553
▁устрой	-6554
▁пун	-6555
▁кредит	-6556
чении	-6557
▁лучшие	-6558
▁гаран	-6559
▁брось	-6560
няется	-6561
▁дружище	-6562
▁поговорю	-6563
▁готово	-6564
▁камеру	-6565
вершенно	-6566
▁небольшой	-6567
▁задать	-6568
▁душ	-6569
▁пак	-6570
▁Пого	-6571
▁связано	-6572
▁назвать	-6573
▁сезон	-6574
кономи	-6575
▁брак	-6576
▁Быть	-6577
зади	-6578
▁остается	-6579
▁неле	-6580
рюк	-6581
▁догада	-6582
мым	-6583
▁обща	-6584
▁протя	-6585
тыми	-6586
ЮК	-6587
сел	-6588
▁письма	-6589
▁преступление	-6590
▁ha	-6591
полни	-6592
▁запер	-6593
чением	-6594
▁no	-6595
▁Чак	-6596
▁сража	-6597
▁Снова	-6598
▁Дар	-6599
▁поступить	-6600
енье	-6601
▁практически	-6602
▁Леди	-6603
▁охран	-6604
▁Ог	-6605
▁Брю	-6606
▁извините	-6607
▁прошлый	-6608
▁блю	-6609
▁Неа	-6610
▁Хён	-6611
▁привести	-6612
деться	-6613
▁поне	-6614
▁звук	-6615
▁Кали	-6616
▁Дере	-6617
▁посме	-6618
▁беспокоиться	-6619
▁Парни	-6620
▁Деб	-6621
РИ	-6622
ЕП	-6623
▁Бери	-6624
▁давать	-6625
▁Мария	-6626
▁новых	-6627
▁Действительно	-6628
▁прим	-6629
▁действовать	-6630
▁раздра	-6631
▁чувствовал	-6632
▁Учи	-6633
▁линии	-6634
мыс	-6635
▁Четыре	-6636
▁старые	-6637
▁воспри	-6638
▁беспокоит	-6639
стка	-6640
▁шум	-6641
▁сука	-6642
▁волнуйтесь	-6643
▁сор	-6644
▁Наконецто	-6645
ровки	-6646
▁предполага	-6647
▁al	-6648
НИ	-6649
▁переры	-6650
нта	-6651
▁бесполез	-6652
▁мечты	-6653
▁Брайан	-6654
▁бороться	-6655
▁наркотики	-6656
▁Хло	-6657
▁тест	-6658
жишь	-6659
▁Ней	-6660
▁Слуша	-6661
▁отношение	-6662
▁принесу	-6663
▁операцию	-6664
▁умею	-6665
▁тяж	-6666
lx	-6667
▁мето	-6668
▁Ненавижу	-6669
НО	-6670
▁просты	-6671
▁играл	-6672
▁кусок	-6673
▁имела	-6674
▁Спроси	-6675
▁камеры	-6676
▁прото	-6677
▁миру	-6678
▁упал	-6679
▁считать	-6680
▁мозга	-6681
▁спор	-6682
нца	-6683
▁ищет	-6684
▁положение	-6685
лайн	-6686
▁просила	-6687
▁смогут	-6688
▁лекарства	-6689
▁яр	-6690
▁занимается	-6691
ппа	-6692
тери	-6693
▁встретились	-6694
▁Пей	-6695
вень	-6696
▁удив	-6697
▁Энни	-6698
▁итоге	-6699
▁остальное	-6700
▁выру	-6701
▁кле	-6702
▁грудь	-6703
color	-6704
пьем	-6705
▁ерун	-6706
▁учиты	-6707
▁работ	-6708
▁Сказал	-6709
▁поступил	-6710
няла	-6711
▁Силь	-6712
▁ногу	-6713
▁всетаки	-6714
lxrs	-6715
щите	-6716
lxrsyl	-6717
▁дважды	-6718
▁hlxrsyl	-6719
▁hlxrsylcolor	-6720
ос	-6721
▁анти	-6722
bl	-6723
▁прико	-6724
шко	-6725
▁выле	-6726
▁Чжон	-6727
жий	-6728
▁разных	-6729
um	-6730
▁идите	-6731
зия	-6732
▁приготов	-6733
ra	-6734
▁задание	-6735
▁Тя	-6736
ился	-6737
▁Бля	-6738
рование	-6739
▁бумаги	-6740
вуд	-6741
▁me	-6742
дных	-6743
▁лучших	-6744
▁осталась	-6745
▁сож	-6746
ленный	-6747
▁церкви	-6748
▁нен	-6749
▁вперёд	-6750
▁устала	-6751
▁систему	-6752
вные	-6753
▁Нес	-6754
▁одина	-6755
зли	-6756
▁мусор	-6757
▁нелов	-6758
▁сыном	-6759
▁твоём	-6760
▁душа	-6761
▁Юн	-6762
тони	-6763
рапи	-6764
▁понимает	-6765
вёр	-6766
▁видимо	-6767
▁Вен	-6768
▁ограни	-6769
▁количество	-6770
▁живут	-6771
▁руково	-6772
▁скучаю	-6773
стером	-6774
▁просить	-6775
▁каждой	-6776
▁очи	-6777
▁Ган	-6778
▁Давно	-6779
▁скажем	-6780
▁работали	-6781
▁справлюсь	-6782
▁Рон	-6783
вина	-6784
▁Лондо	-6785
ниц	-6786
▁услышал	-6787
▁пиво	-6788
▁образо	-6789
▁пропал	-6790
▁началось	-6791
▁Положи	-6792
лика	-6793
▁вариант	-6794
▁двор	-6795
▁возник	-6796
▁канди	-6797
▁француз	-6798
▁мёртв	-6799
▁вообра	-6800
▁девушек	-6801
лыми	-6802
▁запол	-6803
▁начинает	-6804
▁убедить	-6805
▁холодно	-6806
▁остановиться	-6807
форд	-6808
▁моби	-6809
▁звонила	-6810
▁выр	-6811
явить	-6812
▁вспомнить	-6813
▁выходи	-6814
be	-6815
▁Харви	-6816
▁Кэтрин	-6817
▁идём	-6818
▁сосредото	-6819
▁сидел	-6820
▁кандида	-6821
15	-6822
▁осве	-6823
▁заявление	-6824
▁Кре	-6825
▁Уильям	-6826
ЕД	-6827
гала	-6828
▁комнаты	-6829
▁впереди	-6830
▁Пыта	-6831
▁убивал	-6832
новение	-6833
▁предложи	-6834
нос	-6835
▁цы	-6836
кнуть	-6837
▁услы	-6838
▁страну	-6839
волю	-6840
▁кварта	-6841
▁наме	-6842
монд	-6843
▁мужем	-6844
▁наедине	-6845
▁договорились	-6846
▁Замечательно	-6847
▁сму	-6848
▁живёт	-6849
▁Профе	-6850
▁45	-6851
▁Чан	-6852
рэй	-6853
▁рады	-6854
▁чудови	-6855
ere	-6856
▁вызвать	-6857
▁ори	-6858
право	-6859
▁ситуацию	-6860
▁уходит	-6861
▁форме	-6862
▁муд	-6863
▁мяч	-6864
▁Рэ	-6865
▁коле	-6866
▁хирур	-6867
ревно	-6868
▁результаты	-6869
▁работой	-6870
▁попросила	-6871
▁Мас	-6872
▁камень	-6873
▁траха	-6874
▁произойдет	-6875
▁оке	-6876
жаешь	-6877
▁превос	-6878
руешь	-6879
▁Король	-6880
▁представляешь	-6881
▁Ы	-6882
стил	-6883
емый	-6884
▁ЛосА	-6885
зову	-6886
▁форму	-6887
▁ОК	-6888
берт	-6889
▁Кое	-6890
зин	-6891
▁Лиз	-6892
▁Чарльз	-6893
готовить	-6894
▁Элиза	-6895
▁стрем	-6896
▁рыба	-6897
▁родился	-6898
▁зарабаты	-6899
туры	-6900
дость	-6901
▁привед	-6902
кл	-6903
▁Такие	-6904
▁жили	-6905
▁изоб	-6906
▁справедливо	-6907
тяги	-6908
▁высоко	-6909
пля	-6910
гну	-6911
▁учас	-6912
браться	-6913
▁Который	-6914
бря	-6915
▁электри	-6916
мые	-6917
▁Скотт	-6918
▁Деньги	-6919
▁on	-6920
▁красиво	-6921
▁наверно	-6922
▁еда	-6923
▁перей	-6924
лив	-6925
▁сражаться	-6926
▁Чо	-6927
▁сигарет	-6928
дир	-6929
▁миллион	-6930
▁Томас	-6931
▁подобного	-6932
▁Будьте	-6933
нная	-6934
▁бабушка	-6935
блиоте	-6936
▁задер	-6937
▁зрения	-6938
▁Лэн	-6939
▁волноваться	-6940
▁ат	-6941
▁встрече	-6942
▁Спокойно	-6943
▁хло	-6944
▁президента	-6945
▁чушь	-6946
▁тради	-6947
▁благодар	-6948
▁братья	-6949
▁отдохнуть	-6950
первых	-6951
пки	-6952
▁Госпожа	-6953
▁мощ	-6954
▁адвоката	-6955
▁действия	-6956
сны	-6957
хан	-6958
чуть	-6959
▁пиц	-6960
▁миллиона	-6961
▁армии	-6962
▁приехать	-6963
▁интервью	-6964
зать	-6965
▁братом	-6966
▁напо	-6967
езжать	-6968
▁фунтов	-6969
▁позвонила	-6970
няют	-6971
▁приближа	-6972
▁Ааа	-6973
▁карты	-6974
▁думай	-6975
▁собственно	-6976
пар	-6977
▁Пой	-6978
▁сним	-6979
▁мужчиной	-6980
▁несмотря	-6981
▁Шеф	-6982
▁хими	-6983
▁Дэние	-6984
▁рассказывал	-6985
▁незакон	-6986
▁Дамы	-6987
▁наслажда	-6988
▁кровати	-6989
няю	-6990
▁Перед	-6991
▁преле	-6992
▁извиниться	-6993
▁пойдешь	-6994
▁появится	-6995
▁надела	-6996
нц	-6997
▁ев	-6998
▁экспери	-6999
▁смотрит	-7000
дны	-7001
щении	-7002
рели	-7003
▁поступ	-7004
гина	-7005
ческим	-7006
еной	-7007
▁любим	-7008
жают	-7009
▁сыгра	-7010
▁плох	-7011
▁изменя	-7012
▁читал	-7013
▁фана	-7014
▁сексуаль	-7015
▁пациент	-7016
▁торго	-7017
▁каково	-7018
▁умирает	-7019
▁подождите	-7020
▁степ	-7021
▁Уор	-7022
▁едет	-7023
▁умрет	-7024
▁слад	-7025
ссы	-7026
▁книга	-7027
тельную	-7028
▁The	-7029
▁болит	-7030
зма	-7031
▁выки	-7032
ленные	-7033
▁ожидал	-7034
йка	-7035
▁Такая	-7036
▁Само	-7037
▁посмотрю	-7038
десят	-7039
▁цветы	-7040
▁плохая	-7041
реб	-7042
▁пробо	-7043
▁узнаем	-7044
▁ресторан	-7045
лах	-7046
▁Шел	-7047
ЦН	-7048
▁консу	-7049
▁защиты	-7050
▁полной	-7051
▁ЦРУ	-7052
rx	-7053
▁сидит	-7054
▁Собира	-7055
▁задержи	-7056
▁банк	-7057
▁внезапно	-7058
▁воору	-7059
нное	-7060
▁системы	-7061
▁позволя	-7062
phaHFF	-7063
▁вряд	-7064
гро	-7065
▁код	-7066
▁ограб	-7067
▁отре	-7068
▁домаш	-7069
▁срок	-7070
дую	-7071
▁Док	-7072
▁ору	-7073
▁сержант	-7074
▁тип	-7075
▁исти	-7076
тика	-7077
▁Счита	-7078
▁ъ	-7079
жима	-7080
▁Брен	-7081
▁выступ	-7082
▁мозги	-7083
▁отеле	-7084
нься	-7085
▁зерка	-7086
▁сестру	-7087
▁МакК	-7088
▁Твою	-7089
▁вернемся	-7090
▁Шей	-7091
споко	-7092
стся	-7093
▁забу	-7094
▁вызов	-7095
▁публи	-7096
▁предпри	-7097
▁контролировать	-7098
иму	-7099
▁урок	-7100
ковы	-7101
▁Несколько	-7102
дца	-7103
▁Кай	-7104
▁засу	-7105
▁которыми	-7106
▁трогай	-7107
ремен	-7108
▁Север	-7109
▁выиграть	-7110
▁предложил	-7111
кройте	-7112
▁отличная	-7113
беремся	-7114
▁Дя	-7115
▁дурак	-7116
▁мак	-7117
▁невин	-7118
вера	-7119
жер	-7120
▁приходить	-7121
ктов	-7122
▁перво	-7123
▁Будешь	-7124
▁Евро	-7125
▁звонить	-7126
▁Салли	-7127
▁миль	-7128
▁напуга	-7129
тал	-7130
▁выбо	-7131
▁значение	-7132
сис	-7133
▁большим	-7134
▁носить	-7135
▁отвечать	-7136
▁полицейский	-7137
▁тюрьмы	-7138
▁основном	-7139
▁класса	-7140
зывают	-7141
▁сопротив	-7142
▁плохие	-7143
ственные	-7144
▁жениться	-7145
▁признать	-7146
▁Невероятно	-7147
▁прекратить	-7148
мби	-7149
ертво	-7150
тики	-7151
▁офице	-7152
▁изменилось	-7153
▁Береги	-7154
▁дю	-7155
силия	-7156
▁имеют	-7157
▁воздух	-7158
▁Кевин	-7159
▁80	-7160
▁Чика	-7161
▁свадьбу	-7162
▁проводить	-7163
▁Вра	-7164
▁дорого	-7165
▁вор	-7166
▁подели	-7167
тором	-7168
зовите	-7169
▁помеша	-7170
▁дыха	-7171
▁китай	-7172
ЛИ	-7173
▁ценю	-7174
▁чемпи	-7175
▁самому	-7176
▁получу	-7177
▁жале	-7178
▁Пас	-7179
▁Генера	-7180
▁свадьбы	-7181
▁посыла	-7182
▁танцевать	-7183
▁мэ	-7184
▁эго	-7185
▁Прощай	-7186
▁следить	-7187
▁распла	-7188
еба	-7189
▁игро	-7190
▁35	-7191
▁зря	-7192
▁хуй	-7193
▁здоро	-7194
▁правительство	-7195
▁долги	-7196
точку	-7197
это	-7198
▁разли	-7199
▁Тед	-7200
▁настаи	-7201
▁Нормально	-7202
na	-7203
▁возрасте	-7204
▁встретимся	-7205
пала	-7206
▁выво	-7207
ПЮ	-7208
оборот	-7209
тием	-7210
▁немно	-7211
▁подобное	-7212
▁Ву	-7213
▁Шер	-7214
▁заку	-7215
▁завтрак	-7216
▁Бэ	-7217
▁форма	-7218
гаю	-7219
бный	-7220
▁лучшим	-7221
▁Кото	-7222
ственной	-7223
▁вытащить	-7224
ься	-7225
▁связаться	-7226
▁Прине	-7227
гант	-7228
▁убит	-7229
▁просле	-7230
▁Пау	-7231
▁поси	-7232
▁расши	-7233
▁прошел	-7234
▁баре	-7235
чнее	-7236
▁попо	-7237
▁21	-7238
▁дух	-7239
▁потвоему	-7240
▁взрыв	-7241
▁конкрет	-7242
▁бал	-7243
▁убьют	-7244
▁тет	-7245
▁поесть	-7246
▁неожида	-7247
клина	-7248
▁сена	-7249
▁позади	-7250
▁бага	-7251
▁Проверь	-7252
▁Последний	-7253
▁простран	-7254
▁власть	-7255
рнали	-7256
▁занимался	-7257
▁ужина	-7258
▁Брэ	-7259
▁хрена	-7260
▁очарова	-7261
туи	-7262
▁считают	-7263
▁учиться	-7264
▁выиграл	-7265
▁трети	-7266
берна	-7267
▁вкусно	-7268
▁ля	-7269
▁Вероятно	-7270
▁директор	-7271
▁требо	-7272
▁Узна	-7273
▁дерьма	-7274
▁Неме	-7275
ворю	-7276
ant	-7277
гг	-7278
▁Гон	-7279
▁НьюЙорке	-7280
▁and	-7281
▁собственной	-7282
буд	-7283
▁шах	-7284
▁рукой	-7285
▁заставляет	-7286
▁слухи	-7287
25	-7288
▁ходил	-7289
▁данный	-7290
▁прось	-7291
▁направи	-7292
▁лиш	-7293
▁нескольких	-7294
▁улицу	-7295
рисо	-7296
вили	-7297
▁указа	-7298
▁изнасило	-7299
▁пива	-7300
▁принци	-7301
▁подготови	-7302
пят	-7303
▁отчая	-7304
язательно	-7305
▁медицин	-7306
▁вспомина	-7307
доле	-7308
▁мяг	-7309
▁старая	-7310
▁центр	-7311
ведения	-7312
▁сериа	-7313
бар	-7314
▁роли	-7315
гнать	-7316
▁Рейчел	-7317
ont	-7318
▁дамы	-7319
▁кисло	-7320
▁бойся	-7321
мусь	-7322
веро	-7323
▁оставили	-7324
▁стер	-7325
пускать	-7326
▁отпусти	-7327
▁находя	-7328
▁магазине	-7329
▁держаться	-7330
▁описа	-7331
бами	-7332
▁граждан	-7333
▁убрать	-7334
▁леген	-7335
▁лекарство	-7336
▁рису	-7337
нджеле	-7338
▁Ак	-7339
дыду	-7340
▁болезнь	-7341
чают	-7342
▁Обра	-7343
▁посвя	-7344
▁профессор	-7345
▁обстоятельства	-7346
▁Уолтер	-7347
▁отста	-7348
▁Чёр	-7349
▁разбу	-7350
▁операция	-7351
▁установи	-7352
▁потребу	-7353
▁считаете	-7354
▁поблагодарить	-7355
▁праздни	-7356
▁маленькие	-7357
▁глубоко	-7358
гар	-7359
▁курс	-7360
▁Запа	-7361
▁Келли	-7362
▁An	-7363
▁хорошей	-7364
▁Филип	-7365
▁Теле	-7366
▁горе	-7367
▁занимаюсь	-7368
▁Ами	-7369
▁оцени	-7370
▁нибудь	-7371
▁подпи	-7372
▁спрашиваю	-7373
льными	-7374
▁передо	-7375
▁показалось	-7376
▁навести	-7377
▁шучу	-7378
ферен	-7379
▁рели	-7380
▁отрица	-7381
▁Прид	-7382
▁проверя	-7383
▁вмеши	-7384
▁десяти	-7385
▁данных	-7386
▁приезжа	-7387
▁клиентов	-7388
пора	-7389
лению	-7390
жного	-7391
▁обманы	-7392
▁случается	-7393
тана	-7394
▁детям	-7395
сист	-7396
▁бло	-7397
зываю	-7398
шок	-7399
▁понимать	-7400
▁поможешь	-7401
чники	-7402
▁Вижу	-7403
▁фаль	-7404
▁Говорит	-7405
▁принесла	-7406
▁Барри	-7407
▁добы	-7408
▁ведет	-7409
▁спер	-7410
▁смертью	-7411
риан	-7412
▁бросила	-7413
▁отвечает	-7414
▁последняя	-7415
▁Заба	-7416
▁Судь	-7417
▁занята	-7418
▁ау	-7419
▁лесу	-7420
говорить	-7421
▁умеешь	-7422
вяз	-7423
▁дово	-7424
▁Мать	-7425
▁поедем	-7426
▁Алекса	-7427
▁горжусь	-7428
ЕЙ	-7429
дах	-7430
▁дождь	-7431
▁фиг	-7432
▁куль	-7433
▁Была	-7434
▁молодец	-7435
▁Зи	-7436
▁выклю	-7437
▁Говорю	-7438
▁девять	-7439
▁отправил	-7440
итя	-7441
▁секса	-7442
▁Любовь	-7443
▁перегово	-7444
▁окна	-7445
▁трое	-7446
▁мона	-7447
▁создать	-7448
▁придумал	-7449
ковать	-7450
▁Леона	-7451
ld	-7452
▁Проклятье	-7453
▁fsc	-7454
▁представляю	-7455
ae	-7456
▁прожи	-7457
ag	-7458
▁вернётся	-7459
стрей	-7460
▁дому	-7461
▁деньгами	-7462
▁успокойся	-7463
▁Позвони	-7464
▁спро	-7465
▁Кем	-7466
▁животных	-7467
▁Тоби	-7468
▁лежит	-7469
рони	-7470
▁наро	-7471
▁собрать	-7472
▁Эбби	-7473
оне	-7474
зель	-7475
▁убьет	-7476
▁районе	-7477
чишь	-7478
▁предна	-7479
▁коека	-7480
▁любое	-7481
▁звонит	-7482
▁закончилось	-7483
▁забыли	-7484
▁управлять	-7485
била	-7486
ереди	-7487
▁загля	-7488
▁прошли	-7489
▁эфи	-7490
▁харак	-7491
▁перене	-7492
▁Грейс	-7493
▁обезья	-7494
bord	-7495
▁Малы	-7496
лию	-7497
туру	-7498
кает	-7499
▁племян	-7500
ждая	-7501
▁памяти	-7502
▁реша	-7503
▁чёрта	-7504
▁списке	-7505
▁залож	-7506
сток	-7507
▁Мей	-7508
кты	-7509
▁надеялся	-7510
▁мг	-7511
▁пова	-7512
ани	-7513
зал	-7514
▁Зам	-7515
тельна	-7516
▁технологи	-7517
▁разберусь	-7518
временно	-7519
▁Отвали	-7520
▁нелег	-7521
▁Хри	-7522
▁сро	-7523
▁Держите	-7524
▁бассей	-7525
▁копа	-7526
▁ЛосАнджеле	-7527
▁счастье	-7528
▁круг	-7529
вич	-7530
▁Ранее	-7531
▁Чжи	-7532
▁медленно	-7533
▁востор	-7534
▁бояться	-7535
▁лейтенант	-7536
хло	-7537
тировать	-7538
тером	-7539
▁придумать	-7540
▁Пошел	-7541
▁Подумай	-7542
▁автобус	-7543
пка	-7544
граф	-7545
▁помоему	-7546
▁репута	-7547
▁специали	-7548
руем	-7549
▁Ды	-7550
▁взво	-7551
▁гер	-7552
лами	-7553
▁зар	-7554
кле	-7555
▁выжить	-7556
▁Нару	-7557
гнали	-7558
езд	-7559
БН	-7560
часа	-7561
▁петь	-7562
ленная	-7563
▁танцу	-7564
рои	-7565
нений	-7566
▁тур	-7567
▁усы	-7568
▁разор	-7569
▁войне	-7570
▁запу	-7571
▁кафе	-7572
▁попала	-7573
▁бери	-7574
пс	-7575
▁любимый	-7576
▁навре	-7577
▁любого	-7578
лоси	-7579
рите	-7580
▁побыть	-7581
▁Мадам	-7582
▁скучно	-7583
нной	-7584
▁нашему	-7585
▁покинуть	-7586
таться	-7587
▁штаны	-7588
ведите	-7589
▁Свет	-7590
станов	-7591
▁груди	-7592
сии	-7593
▁погоди	-7594
▁Можем	-7595
▁удовольствие	-7596
▁Понимаете	-7597
▁ящи	-7598
▁госпожа	-7599
ion	-7600
▁радостью	-7601
▁Прежде	-7602
▁Типа	-7603
▁Тише	-7604
▁прока	-7605
▁купила	-7606
▁собирались	-7607
ии	-7608
ческом	-7609
▁Бру	-7610
▁удачи	-7611
▁обру	-7612
▁миллиар	-7613
емого	-7614
▁выигры	-7615
▁учитывая	-7616
▁избежать	-7617
помя	-7618
▁работаем	-7619
▁Деся	-7620
▁заработа	-7621
▁кухне	-7622
▁невинов	-7623
вность	-7624
▁зубы	-7625
▁Элизабет	-7626
▁be	-7627
▁даль	-7628
▁ски	-7629
▁Интер	-7630
▁колледж	-7631
▁счастью	-7632
▁мужчину	-7633
лим	-7634
▁умирать	-7635
▁Многие	-7636
▁Ын	-7637
▁Зато	-7638
▁предыду	-7639
▁счастливы	-7640
▁проститу	-7641
▁приходил	-7642
▁появилась	-7643
▁пациента	-7644
мона	-7645
▁разме	-7646
▁Большой	-7647
▁Алан	-7648
▁Чикаго	-7649
▁половину	-7650
▁пусто	-7651
брал	-7652
▁игре	-7653
▁испор	-7654
▁пожалуй	-7655
▁правило	-7656
▁Новый	-7657
▁учеб	-7658
▁кошмар	-7659
бя	-7660
▁драться	-7661
нутся	-7662
▁участок	-7663
цах	-7664
▁ешь	-7665
▁молод	-7666
▁замеша	-7667
▁вось	-7668
▁Дада	-7669
▁ответил	-7670
нился	-7671
▁большинство	-7672
▁Таким	-7673
▁живой	-7674
▁живых	-7675
▁мертвы	-7676
pe	-7677
▁трога	-7678
жке	-7679
руется	-7680
▁некоторых	-7681
▁Элис	-7682
▁слышите	-7683
▁Призна	-7684
▁здания	-7685
▁разоча	-7686
щением	-7687
▁заблу	-7688
▁убивает	-7689
▁Моё	-7690
ch	-7691
фан	-7692
▁фра	-7693
▁Дерь	-7694
боту	-7695
▁заго	-7696
▁оказаться	-7697
легче	-7698
▁общего	-7699
st	-7700
▁Вой	-7701
гей	-7702
▁поймали	-7703
▁гло	-7704
▁опоз	-7705
▁кости	-7706
тс	-7707
▁Бли	-7708
дёшь	-7709
щины	-7710
▁спала	-7711
▁You	-7712
▁присматри	-7713
▁подъ	-7714
▁столе	-7715
▁зуб	-7716
▁проходит	-7717
▁сзади	-7718
▁уволь	-7719
▁попытаться	-7720
дочку	-7721
▁Ханна	-7722
▁третий	-7723
od	-7724
▁умеет	-7725
▁вину	-7726
ствуешь	-7727
▁желания	-7728
▁Бабу	-7729
▁j	-7730
▁пут	-7731
▁Шесть	-7732
▁приро	-7733
стили	-7734
13	-7735
▁ужи	-7736
▁надеяться	-7737
пара	-7738
▁сотни	-7739
▁гне	-7740
▁понедель	-7741
▁лучшего	-7742
▁девчонка	-7743
циа	-7744
▁дли	-7745
ломет	-7746
▁убор	-7747
▁неправда	-7748
▁провел	-7749
▁контроль	-7750
лос	-7751
▁Тим	-7752
▁начинаю	-7753
▁отдыха	-7754
▁чувствует	-7755
▁позволил	-7756
▁плохое	-7757
▁жертв	-7758
▁замок	-7759
▁ненавидит	-7760
▁90	-7761
▁ненадолго	-7762
▁спуска	-7763
▁здравству	-7764
▁гри	-7765
▁Совет	-7766
▁важнее	-7767
▁руке	-7768
▁чемо	-7769
ствовала	-7770
ill	-7771
▁натвори	-7772
▁Мэм	-7773
▁попали	-7774
▁улики	-7775
▁распростра	-7776
▁Эндрю	-7777
▁сквозь	-7778
▁Люк	-7779
▁рекомен	-7780
▁превраща	-7781
▁Рада	-7782
▁МЮ	-7783
▁моря	-7784
▁Найди	-7785
▁сесть	-7786
▁вечеринке	-7787
▁сумасшедший	-7788
стал	-7789
▁Кит	-7790
▁кабин	-7791
▁разно	-7792
▁словами	-7793
ждал	-7794
▁точки	-7795
▁Ари	-7796
▁Мит	-7797
мого	-7798
▁название	-7799
▁невероят	-7800
чика	-7801
▁позвольте	-7802
▁интересует	-7803
чён	-7804
еном	-7805
▁циф	-7806
ностью	-7807
▁присоединиться	-7808
▁зла	-7809
▁отель	-7810
▁Энн	-7811
▁тему	-7812
предел	-7813
▁подска	-7814
▁виделись	-7815
▁встать	-7816
▁спорт	-7817
▁беспокой	-7818
▁ничем	-7819
▁страх	-7820
▁причине	-7821
▁оскорб	-7822
▁старше	-7823
▁одиночку	-7824
▁Уни	-7825
▁взлома	-7826
рс	-7827
нитель	-7828
▁Расслабься	-7829
нутри	-7830
▁Предпо	-7831
▁репети	-7832
▁выро	-7833
ИС	-7834
йн	-7835
▁внимательно	-7836
▁that	-7837
▁земля	-7838
▁согласна	-7839
▁ниже	-7840
▁последней	-7841
▁отказаться	-7842
▁собираются	-7843
▁пожертво	-7844
телось	-7845
▁жертву	-7846
▁Выглядит	-7847
рета	-7848
лосипе	-7849
▁Артур	-7850
кри	-7851
▁27	-7852
▁Закон	-7853
▁постель	-7854
▁объяви	-7855
▁Подни	-7856
▁колени	-7857
▁некоторое	-7858
▁защища	-7859
жко	-7860
▁забавно	-7861
▁оказыва	-7862
▁Королев	-7863
МЮ	-7864
▁доби	-7865
▁центра	-7866
▁Гло	-7867
▁пари	-7868
▁классе	-7869
▁представляет	-7870
▁Рик	-7871
▁Дерьмо	-7872
▁переживай	-7873
лаз	-7874
▁возмо	-7875
▁Морган	-7876
▁занимаешься	-7877
▁корабля	-7878
ie	-7879
▁упомя	-7880
▁подра	-7881
▁пахнет	-7882
▁облег	-7883
▁Стоять	-7884
ight	-7885
▁серде	-7886
▁библиоте	-7887
▁обнаружили	-7888
АТ	-7889
▁опозна	-7890
льс	-7891
▁сукин	-7892
▁Погодите	-7893
▁потрясающе	-7894
▁демон	-7895
▁местах	-7896
▁гд	-7897
ступать	-7898
▁транспо	-7899
жений	-7900
нилось	-7901
▁пригласил	-7902
мую	-7903
чих	-7904
▁Номер	-7905
▁меха	-7906
мену	-7907
етт	-7908
▁жила	-7909
зительно	-7910
▁церковь	-7911
▁согласился	-7912
▁перем	-7913
▁Уай	-7914
▁национа	-7915
▁узнаешь	-7916
жие	-7917
▁верх	-7918
▁сцен	-7919
▁придут	-7920
▁одет	-7921
праведливо	-7922
▁гос	-7923
▁Лука	-7924
▁ябло	-7925
даешь	-7926
▁жест	-7927
▁шам	-7928
▁сан	-7929
▁пожале	-7930
▁Также	-7931
▁какнибудь	-7932
решь	-7933
вите	-7934
▁Убей	-7935
▁перио	-7936
▁распоря	-7937
дную	-7938
▁имеем	-7939
тной	-7940
▁заботиться	-7941
▁насе	-7942
▁плачу	-7943
▁спину	-7944
▁неб	-7945
чало	-7946
▁даю	-7947
▁болен	-7948
▁дольше	-7949
▁Судя	-7950
▁Поста	-7951
▁счета	-7952
▁убийцу	-7953
АК	-7954
▁договор	-7955
▁увидите	-7956
▁больницы	-7957
▁бур	-7958
▁сго	-7959
▁сокрови	-7960
бл	-7961
▁отстой	-7962
▁бесе	-7963
▁Ат	-7964
▁семьей	-7965
▁Женщина	-7966
▁кот	-7967
▁пригласить	-7968
лость	-7969
немся	-7970
▁всётаки	-7971
▁Сядь	-7972
ОД	-7973
пании	-7974
▁Милый	-7975
▁вариан	-7976
▁добрый	-7977
▁ошибки	-7978
▁выйду	-7979
▁вь	-7980
стная	-7981
▁Возьмите	-7982
чном	-7983
▁правде	-7984
▁торопи	-7985
▁Чжун	-7986
▁беру	-7987
▁инт	-7988
ee	-7989
кала	-7990
сию	-7991
дном	-7992
льку	-7993
▁зарпла	-7994
довлет	-7995
▁отом	-7996
▁церемо	-7997
▁Жу	-7998
▁журнали	-7999
▁Эмма	-8000
▁Париж	-8001
▁целью	-8002
▁партнер	-8003
▁извинения	-8004
▁какойнибудь	-8005
▁узнают	-8006
▁Сын	-8007
▁совершил	-8008
▁побольше	-8009
▁май	-8010
циальный	-8011
▁сообщения	-8012
нье	-8013
▁клет	-8014
▁первом	-8015
▁отпечатки	-8016
фли	-8017
▁лаборатории	-8018
лор	-8019
▁бук	-8020
▁отор	-8021
▁ем	-8022
▁Сестра	-8023
▁переме	-8024
▁Хмм	-8025
▁Роза	-8026
▁Твое	-8027
▁хрень	-8028
40	-8029
▁уско	-8030
▁вызывает	-8031
колад	-8032
▁виновата	-8033
▁чудесно	-8034
стен	-8035
▁Вами	-8036
ai	-8037
ых	-8038
▁достав	-8039
скими	-8040
▁несчастный	-8041
даль	-8042
мость	-8043
▁вдво	-8044
тная	-8045
▁женщине	-8046
▁Прекратите	-8047
▁удивительно	-8048
▁бара	-8049
▁ранен	-8050
▁кара	-8051
▁карту	-8052
▁голоса	-8053
▁прошлого	-8054
гнал	-8055
▁чрез	-8056
▁песни	-8057
▁приста	-8058
гаешь	-8059
▁найдём	-8060
▁перестать	-8061
▁Рим	-8062
чется	-8063
▁женат	-8064
▁пишу	-8065
▁необы	-8066
▁пойдёт	-8067
▁Зе	-8068
▁оказалось	-8069
▁Вопрос	-8070
▁остров	-8071
▁Убе	-8072
▁иску	-8073
ul	-8074
▁призра	-8075
▁находиться	-8076
▁вечеринки	-8077
▁двадцать	-8078
▁анге	-8079
кура	-8080
▁предлагаю	-8081
▁предупредить	-8082
▁удастся	-8083
▁расскажи	-8084
▁Абсолютно	-8085
▁начинать	-8086
▁Росс	-8087
▁новень	-8088
кен	-8089
▁лжи	-8090
▁Калифор	-8091
▁богу	-8092
▁таблетки	-8093
ченный	-8094
сель	-8095
▁медсе	-8096
▁Оба	-8097
▁километ	-8098
▁достоин	-8099
▁медве	-8100
▁удосто	-8101
▁куданибудь	-8102
▁Мини	-8103
ститу	-8104
ia	-8105
▁ня	-8106
▁Исто	-8107
▁нелегко	-8108
вным	-8109
сели	-8110
▁x	-8111
▁доверяю	-8112
▁трё	-8113
▁пошло	-8114
▁дополни	-8115
тк	-8116
▁Стю	-8117
ора	-8118
▁метров	-8119
▁показал	-8120
▁Делай	-8121
▁парню	-8122
▁умный	-8123
▁одолжение	-8124
▁00	-8125
ваясь	-8126
ренер	-8127
▁малышка	-8128
МХ	-8129
▁кно	-8130
пустим	-8131
▁Великолеп	-8132
фика	-8133
▁одоб	-8134
▁спишь	-8135
лял	-8136
нией	-8137
телен	-8138
▁Тра	-8139
▁лёг	-8140
▁Постара	-8141
▁помогите	-8142
валь	-8143
▁фальши	-8144
▁энергии	-8145
▁теми	-8146
▁звонки	-8147
▁свободу	-8148
▁контракт	-8149
носи	-8150
▁новым	-8151
▁цвета	-8152
▁увидит	-8153
▁дур	-8154
▁заяв	-8155
баный	-8156
▁Сту	-8157
ьте	-8158
▁сбро	-8159
▁поду	-8160
▁Карен	-8161
▁Оска	-8162
▁реаль	-8163
▁Картер	-8164
пустила	-8165
вшая	-8166
▁расписа	-8167
▁редко	-8168
▁твер	-8169
▁лошадь	-8170
син	-8171
▁мальчики	-8172
▁другому	-8173
▁Сама	-8174
▁возбу	-8175
ропись	-8176
ИЯ	-8177
▁совпадение	-8178
▁тупи	-8179
▁школа	-8180
▁готовить	-8181
давно	-8182
▁70	-8183
▁стараюсь	-8184
▁очки	-8185
чан	-8186
▁гара	-8187
▁установ	-8188
дд	-8189
ственного	-8190
▁сходи	-8191
▁странный	-8192
▁Мину	-8193
▁страхов	-8194
▁логи	-8195
▁Иде	-8196
▁велосипе	-8197
▁Пак	-8198
▁ждала	-8199
▁провели	-8200
▁думаем	-8201
▁Каким	-8202
▁дворе	-8203
ИЛ	-8204
▁звон	-8205
▁Заходи	-8206
мия	-8207
шено	-8208
▁сверху	-8209
хорошо	-8210
титры	-8211
▁убийцы	-8212
кона	-8213
▁неудоб	-8214
▁мошен	-8215
▁спрашивал	-8216
▁отказался	-8217
ok	-8218
ДЮ	-8219
▁процесс	-8220
▁домом	-8221
▁Кол	-8222
▁настоящие	-8223
▁будьте	-8224
▁ударил	-8225
▁мясо	-8226
▁пласти	-8227
нё	-8228
▁Пан	-8229
▁совра	-8230
▁поверх	-8231
▁расскажешь	-8232
▁Авто	-8233
▁конкур	-8234
▁али	-8235
▁удивля	-8236
шай	-8237
▁гар	-8238
▁службы	-8239
▁Огонь	-8240
▁заяви	-8241
▁выгляжу	-8242
▁горло	-8243
тельны	-8244
▁Побе	-8245
▁Хай	-8246
▁Кана	-8247
▁Ребек	-8248
гни	-8249
▁заплатил	-8250
бый	-8251
▁познакомились	-8252
▁Чет	-8253
енец	-8254
▁проща	-8255
тографи	-8256
▁Эль	-8257
▁предпоч	-8258
FFFF	-8259
▁собаку	-8260
▁Сержант	-8261
▁проголо	-8262
слов	-8263
▁Люби	-8264
ff	-8265
рования	-8266
▁доми	-8267
твор	-8268
▁Ть	-8269
▁ков	-8270
▁Санта	-8271
▁поднять	-8272
зок	-8273
▁Зас	-8274
▁Кэти	-8275
▁Оливер	-8276
▁соревно	-8277
▁изменился	-8278
▁уку	-8279
орма	-8280
▁дышать	-8281
45	-8282
▁ано	-8283
▁миро	-8284
▁Чтоб	-8285
▁спиной	-8286
▁заре	-8287
▁детстве	-8288
сня	-8289
▁разрешения	-8290
ссию	-8291
▁Жан	-8292
был	-8293
▁сомнения	-8294
класс	-8295
▁найдут	-8296
чений	-8297
никам	-8298
▁множество	-8299
▁контролем	-8300
▁замужем	-8301
▁лице	-8302
шками	-8303
▁фла	-8304
▁собак	-8305
жаете	-8306
▁Мэгги	-8307
▁Вместе	-8308
▁девочек	-8309
▁одержи	-8310
▁патру	-8311
▁события	-8312
▁Провер	-8313
ьтесь	-8314
▁бывший	-8315
лке	-8316
▁ищешь	-8317
даем	-8318
▁Уди	-8319
вительно	-8320
▁Наверно	-8321
▁Профессор	-8322
▁v	-8323
▁терять	-8324
▁Помните	-8325
▁Аман	-8326
▁использует	-8327
▁объеди	-8328
▁упря	-8329
▁улицы	-8330
бере	-8331
▁Гля	-8332
▁коз	-8333
▁дорога	-8334
▁финансо	-8335
рости	-8336
▁пьян	-8337
▁разоб	-8338
вале	-8339
енные	-8340
▁Звез	-8341
▁Лиза	-8342
▁перено	-8343
▁Проблема	-8344
КИ	-8345
▁врать	-8346
ректор	-8347
спу	-8348
▁уехала	-8349
ходе	-8350
▁неловко	-8351
▁богат	-8352
▁Продолжайте	-8353
шный	-8354
▁останешься	-8355
нар	-8356
▁любую	-8357
▁статус	-8358
▁держит	-8359
▁хороша	-8360
лему	-8361
чился	-8362
▁Тей	-8363
▁ветер	-8364
▁подня	-8365
▁исследования	-8366
▁вскры	-8367
▁отпустить	-8368
▁водо	-8369
▁уз	-8370
жили	-8371
▁брю	-8372
▁волос	-8373
▁любите	-8374
▁красивый	-8375
пры	-8376
▁судья	-8377
▁Какую	-8378
▁поспо	-8379
▁позабочусь	-8380
▁целую	-8381
▁праздник	-8382
▁Немедленно	-8383
▁боится	-8384
▁Самое	-8385
▁Ав	-8386
▁привяза	-8387
▁предела	-8388
ell	-8389
▁Второй	-8390
▁Вопервых	-8391
▁штук	-8392
резать	-8393
▁ээ	-8394
тоне	-8395
▁опе	-8396
▁создал	-8397
▁корабле	-8398
▁штата	-8399
▁чегонибудь	-8400
ливый	-8401
▁Дядя	-8402
▁fscx	-8403
▁разда	-8404
▁Лорен	-8405
▁процен	-8406
▁НьюЙорка	-8407
▁возвращается	-8408
▁прочь	-8409
▁необходимости	-8410
▁жестоко	-8411
▁заслуживает	-8412
▁Чуде	-8413
▁генерал	-8414
▁помол	-8415
▁Лейтенант	-8416
зки	-8417
тию	-8418
▁холоди	-8419
▁пятницу	-8420
▁вдо	-8421
▁отвез	-8422
▁желаю	-8423
▁Смерть	-8424
▁Главное	-8425
▁Лондон	-8426
▁Слышал	-8427
▁считал	-8428
МЕ	-8429
министра	-8430
уса	-8431
▁расстоя	-8432
▁источник	-8433
говорились	-8434
▁i	-8435
щено	-8436
ым	-8437
▁сильный	-8438
▁желу	-8439
▁ответы	-8440
▁найдешь	-8441
▁кудато	-8442
▁постав	-8443
сков	-8444
▁хвати	-8445
▁записы	-8446
▁пристре	-8447
▁Грин	-8448
▁оказалась	-8449
▁чё	-8450
▁стоп	-8451
словно	-8452
▁верто	-8453
нных	-8454
▁популяр	-8455
▁откров	-8456
роны	-8457
▁кок	-8458
▁Понятия	-8459
▁мм	-8460
▁Шери	-8461
▁Хэй	-8462
▁сли	-8463
вла	-8464
▁силой	-8465
▁выходить	-8466
▁he	-8467
▁своя	-8468
▁заберу	-8469
▁закрыть	-8470
▁совме	-8471
▁темпера	-8472
енд	-8473
шена	-8474
▁зате	-8475
▁дают	-8476
▁перерыв	-8477
▁полчаса	-8478
▁оцен	-8479
▁стены	-8480
▁написала	-8481
▁использовали	-8482
▁Эт	-8483
ходы	-8484
▁Тхэ	-8485
▁кабинете	-8486
чья	-8487
ственным	-8488
▁проект	-8489
сать	-8490
▁Потер	-8491
надца	-8492
▁занятия	-8493
жён	-8494
▁занять	-8495
▁именем	-8496
▁днём	-8497
▁катастро	-8498
▁ке	-8499
ули	-8500
▁получите	-8501
▁собрался	-8502
▁разрешение	-8503
ваемся	-8504
▁тепло	-8505
▁шлюха	-8506
▁отвлека	-8507
▁преу	-8508
▁папой	-8509
▁искрен	-8510
▁незави	-8511
▁прекрасная	-8512
▁яви	-8513
стойте	-8514
out	-8515
▁Япо	-8516
▁телевизор	-8517
раи	-8518
▁улуч	-8519
▁Ларри	-8520
▁привело	-8521
▁Совершенно	-8522
▁штуку	-8523
▁запута	-8524
▁Роджер	-8525
▁U	-8526
▁проблему	-8527
▁займусь	-8528
▁еже	-8529
пит	-8530
▁королева	-8531
▁воспользоваться	-8532
▁Джош	-8533
▁Мэтт	-8534
атр	-8535
▁веж	-8536
▁Хэнк	-8537
▁Пор	-8538
▁деше	-8539
▁камера	-8540
▁норме	-8541
ерия	-8542
▁заслужил	-8543
▁мото	-8544
▁отды	-8545
ктором	-8546
▁напле	-8547
ЯЪ	-8548
сай	-8549
стят	-8550
пали	-8551
▁драго	-8552
▁спросила	-8553
АС	-8554
▁агента	-8555
▁сестрой	-8556
▁Клю	-8557
▁держу	-8558
▁глава	-8559
▁невер	-8560
▁Согласен	-8561
▁ванной	-8562
йдете	-8563
▁позаботиться	-8564
лани	-8565
▁дожда	-8566
▁экономи	-8567
▁одновременно	-8568
▁Конец	-8569
▁рисковать	-8570
▁Над	-8571
▁требует	-8572
чите	-8573
▁Иисус	-8574
▁связаны	-8575
▁наоборот	-8576
▁трёх	-8577
дий	-8578
▁перезвоню	-8579
▁впечатление	-8580
▁сно	-8581
▁просыпа	-8582
64	-8583
бах	-8584
май	-8585
▁поцелуй	-8586
▁поведение	-8587
▁шар	-8588
▁Защи	-8589
▁какимто	-8590
▁пенси	-8591
▁дитя	-8592
▁обсуждать	-8593
▁Ци	-8594
▁заполу	-8595
▁модель	-8596
жая	-8597
▁трах	-8598
▁ВРН	-8599
▁чек	-8600
▁Бэй	-8601
вена	-8602
лго	-8603
▁щи	-8604
ваку	-8605
щена	-8606
рился	-8607
▁шести	-8608
▁научиться	-8609
форми	-8610
чками	-8611
▁Мекси	-8612
▁электро	-8613
▁союз	-8614
▁будущего	-8615
фт	-8616
▁ордер	-8617
▁доказательств	-8618
▁затк	-8619
вано	-8620
▁приняли	-8621
▁Фро	-8622
ровку	-8623
▁всякий	-8624
▁собрались	-8625
нори	-8626
▁НЕ	-8627
▁необычно	-8628
▁Земле	-8629
▁подумай	-8630
▁Туда	-8631
ковые	-8632
стоять	-8633
зиться	-8634
▁Сю	-8635
▁спрашивать	-8636
alphaHFF	-8637
▁проходи	-8638
▁группу	-8639
▁Вряд	-8640
тные	-8641
вычай	-8642
зей	-8643
▁Закрой	-8644
▁невы	-8645
▁положить	-8646
пел	-8647
нным	-8648
перт	-8649
▁отвезти	-8650
▁ощущение	-8651
▁простить	-8652
▁каждое	-8653
▁сопрово	-8654
▁хит	-8655
▁отношениях	-8656
▁зме	-8657
лочь	-8658
▁Босс	-8659
▁станции	-8660
ter	-8661
окну	-8662
▁поправи	-8663
▁гденибудь	-8664
ПХ	-8665
шены	-8666
руй	-8667
▁оружием	-8668
зву	-8669
дн	-8670
ющего	-8671
▁дедушка	-8672
люб	-8673
▁посреди	-8674
▁великолепно	-8675
▁гостей	-8676
all	-8677
мых	-8678
▁терпеть	-8679
зости	-8680
▁страна	-8681
▁особенного	-8682
стки	-8683
▁Опера	-8684
▁съесть	-8685
кту	-8686
▁каждым	-8687
▁Свобо	-8688
▁Поднима	-8689
▁обнару	-8690
60	-8691
ступил	-8692
▁дерево	-8693
▁попробуй	-8694
▁разговаривал	-8695
▁бен	-8696
▁Здра	-8697
▁беско	-8698
дора	-8699
▁акт	-8700
▁Пусти	-8701
▁увидели	-8702
▁Дома	-8703
кцию	-8704
▁Этим	-8705
гистри	-8706
ордина	-8707
▁пройдет	-8708
нётся	-8709
▁Замо	-8710
сомненно	-8711
▁Семь	-8712
▁девушке	-8713
▁Отпустите	-8714
▁путешествие	-8715
▁заключи	-8716
▁уходите	-8717
▁горы	-8718
▁заняты	-8719
▁марш	-8720
гали	-8721
▁заново	-8722
ллю	-8723
▁баш	-8724
▁странное	-8725
▁любимая	-8726
▁водой	-8727
▁добиться	-8728
▁Благодаря	-8729
▁звоню	-8730
▁обору	-8731
▁детали	-8732
▁нашими	-8733
ец	-8734
рина	-8735
▁Прият	-8736
▁признаться	-8737
▁псих	-8738
▁каждом	-8739
▁выслуша	-8740
мотр	-8741
▁извра	-8742
шусь	-8743
▁твоими	-8744
▁Большинство	-8745
▁условия	-8746
БЮ	-8747
НЫ	-8748
▁зал	-8749
▁маги	-8750
нято	-8751
ставила	-8752
▁схожу	-8753
▁Америке	-8754
виа	-8755
▁достал	-8756
▁плакать	-8757
ваний	-8758
▁каки	-8759
▁Земля	-8760
▁чувствовала	-8761
▁боялся	-8762
▁Фар	-8763
▁буквально	-8764
▁слушаю	-8765
▁подозри	-8766
оль	-8767
▁атаку	-8768
▁истин	-8769
▁стоят	-8770
▁предназна	-8771
ваетесь	-8772
▁Джейсон	-8773
▁недоста	-8774
лат	-8775
шер	-8776
▁рожд	-8777
▁Забавно	-8778
▁re	-8779
▁согласны	-8780
▁хозяин	-8781
холь	-8782
▁адре	-8783
▁грузовик	-8784
▁йо	-8785
нель	-8786
▁фигу	-8787
▁хрено	-8788
▁идеаль	-8789
▁отправиться	-8790
▁Гас	-8791
▁поля	-8792
▁колледже	-8793
▁Бак	-8794
▁работаете	-8795
▁Гро	-8796
вето	-8797
▁Прос	-8798
▁приклю	-8799
▁Пара	-8800
▁an	-8801
▁клубе	-8802
рят	-8803
правду	-8804
зра	-8805
жан	-8806
▁тря	-8807
▁капитана	-8808
▁пытаются	-8809
▁оказались	-8810
нями	-8811
▁людях	-8812
▁Встре	-8813
▁субботу	-8814
▁Виктор	-8815
▁заметила	-8816
▁Крей	-8817
▁Сооб	-8818
▁духов	-8819
▁искали	-8820
▁обре	-8821
▁Никому	-8822
▁Мед	-8823
▁рисо	-8824
▁розы	-8825
▁заказ	-8826
▁молодо	-8827
▁опоздал	-8828
ристи	-8829
▁Спен	-8830
▁пытаемся	-8831
ab	-8832
дилась	-8833
▁погу	-8834
▁Джонс	-8835
▁немец	-8836
▁отношений	-8837
▁дне	-8838
▁Саймон	-8839
▁верите	-8840
▁подряд	-8841
▁захотел	-8842
▁Мал	-8843
▁ген	-8844
▁пропала	-8845
▁ходит	-8846
aHFF	-8847
▁лагерь	-8848
▁белый	-8849
▁нев	-8850
▁Александ	-8851
▁поделать	-8852
тически	-8853
▁незнаком	-8854
▁Мэн	-8855
▁проек	-8856
▁отдам	-8857
▁Жа	-8858
▁подс	-8859
лила	-8860
▁ящик	-8861
▁стоял	-8862
мере	-8863
▁облажа	-8864
▁проверю	-8865
▁совершен	-8866
▁развлека	-8867
blur	-8868
▁заткнись	-8869
▁палец	-8870
года	-8871
▁помогла	-8872
▁Минут	-8873
летел	-8874
▁бред	-8875
▁заметили	-8876
▁приём	-8877
▁ию	-8878
▁врача	-8879
▁надолго	-8880
▁древ	-8881
▁материа	-8882
бол	-8883
читать	-8884
▁сумку	-8885
▁золото	-8886
▁днев	-8887
90	-8888
▁следующем	-8889
▁живешь	-8890
КХ	-8891
даний	-8892
ходно	-8893
зино	-8894
▁Денни	-8895
▁Отойди	-8896
▁верит	-8897
▁приедет	-8898
стям	-8899
спубли	-8900
▁стене	-8901
▁Согласно	-8902
▁выно	-8903
▁st	-8904
▁чёрто	-8905
▁Тоже	-8906
▁забро	-8907
▁вернешься	-8908
▁Луис	-8909
чее	-8910
▁ненорма	-8911
ственности	-8912
хуй	-8913
▁тормо	-8914
енных	-8915
рованы	-8916
▁скучать	-8917
▁суме	-8918
▁покончить	-8919
▁архи	-8920
▁какиенибудь	-8921
▁Ада	-8922
▁миром	-8923
ri	-8924
лис	-8925
ньте	-8926
▁опро	-8927
▁займет	-8928
▁поцело	-8929
▁Джереми	-8930
▁свободен	-8931
▁спя	-8932
▁открыл	-8933
▁возраста	-8934
▁потребуется	-8935
▁секреты	-8936
▁обмен	-8937
▁процеду	-8938
▁is	-8939
▁веле	-8940
▁зная	-8941
НА	-8942
▁отъ	-8943
▁Франции	-8944
▁давление	-8945
лое	-8946
▁скон	-8947
рована	-8948
энд	-8949
▁хол	-8950
▁заслу	-8951
▁умерли	-8952
МС	-8953
вности	-8954
тельности	-8955
рал	-8956
▁крайне	-8957
▁поставил	-8958
▁надежда	-8959
▁болезни	-8960
▁Бежим	-8961
▁фай	-8962
▁сокра	-8963
вон	-8964
▁суть	-8965
▁экра	-8966
▁Секун	-8967
▁личное	-8968
▁старой	-8969
▁планете	-8970
▁живы	-8971
▁ищут	-8972
чание	-8973
▁дар	-8974
▁удовлет	-8975
зон	-8976
▁полном	-8977
ИД	-8978
▁макси	-8979
ОР	-8980
вере	-8981
▁мора	-8982
вшей	-8983
▁рав	-8984
▁Десять	-8985
▁дожд	-8986
▁транс	-8987
▁скло	-8988
▁Джоан	-8989
▁рецеп	-8990
▁эмоциона	-8991
her	-8992
▁грустно	-8993
▁расстроен	-8994
▁осторожно	-8995
▁монет	-8996
▁встречался	-8997
▁игнори	-8998
▁поисках	-8999
▁прибыли	-9000
▁Кейси	-9001
▁ворота	-9002
шта	-9003
стые	-9004
чиво	-9005
▁пау	-9006
▁глуби	-9007
▁близки	-9008
▁пропустил	-9009
фом	-9010
▁пан	-9011
▁скром	-9012
▁осторожен	-9013
▁надеть	-9014
▁участвовать	-9015
▁диск	-9016
▁вышли	-9017
гают	-9018
▁включи	-9019
бон	-9020
▁девочку	-9021
▁джентльмены	-9022
▁парков	-9023
льда	-9024
▁живым	-9025
▁скор	-9026
▁вырос	-9027
вчик	-9028
чия	-9029
▁удоб	-9030
▁Браво	-9031
▁повод	-9032
▁встретила	-9033
сные	-9034
▁боти	-9035
▁нарисо	-9036
ставляет	-9037
зод	-9038
шают	-9039
▁тка	-9040
▁Чей	-9041
▁занимались	-9042
▁пробу	-9043
▁играю	-9044
жечь	-9045
▁Смит	-9046
▁Остановись	-9047
▁послушать	-9048
▁вред	-9049
▁здра	-9050
▁экспер	-9051
▁Генерал	-9052
▁поиграть	-9053
▁скорость	-9054
динг	-9055
▁Терри	-9056
▁непре	-9057
▁Фри	-9058
▁ждали	-9059
▁отпуск	-9060
ленных	-9061
▁поработа	-9062
▁прикон	-9063
▁Всю	-9064
▁Джейми	-9065
▁Пожалуй	-9066
▁Вален	-9067
чис	-9068
ённо	-9069
емой	-9070
▁украсть	-9071
▁покля	-9072
▁начальник	-9073
рится	-9074
▁Следующий	-9075
▁арестовали	-9076
зья	-9077
▁матема	-9078
▁средства	-9079
▁Дона	-9080
▁Поско	-9081
вят	-9082
▁Живо	-9083
▁сцену	-9084
▁чутьчуть	-9085
▁стену	-9086
▁используют	-9087
▁погру	-9088
▁попробую	-9089
фера	-9090
штей	-9091
▁мерз	-9092
▁встретить	-9093
▁лы	-9094
▁желез	-9095
▁принцесса	-9096
▁проигры	-9097
▁одежда	-9098
▁Ску	-9099
▁Фели	-9100
цепи	-9101
▁правосу	-9102
филд	-9103
езжай	-9104
кадем	-9105
▁инспектор	-9106
зел	-9107
дино	-9108
▁дем	-9109
тятся	-9110
▁простой	-9111
щены	-9112
▁бух	-9113
▁мра	-9114
кцио	-9115
щества	-9116
▁госпита	-9117
ье	-9118
▁сегодняш	-9119
▁Ут	-9120
жное	-9121
▁этаж	-9122
▁графи	-9123
▁наплевать	-9124
▁Вос	-9125
▁результат	-9126
▁чувствуете	-9127
▁сыну	-9128
▁спец	-9129
▁углу	-9130
▁вещах	-9131
▁напал	-9132
▁Андер	-9133
▁Донна	-9134
▁нравилось	-9135
▁учё	-9136
▁поклон	-9137
▁рассле	-9138
уда	-9139
▁Америка	-9140
гана	-9141
ванию	-9142
▁реда	-9143
▁Никакого	-9144
жало	-9145
te	-9146
▁Хелен	-9147
▁Ам	-9148
▁Секрет	-9149
▁выхода	-9150
▁уходим	-9151
▁пальцев	-9152
▁сдох	-9153
▁подумали	-9154
▁способности	-9155
▁поймал	-9156
щер	-9157
▁поехал	-9158
▁привык	-9159
▁Отличный	-9160
▁Герма	-9161
▁Бёр	-9162
▁удержи	-9163
▁дочерью	-9164
▁подстре	-9165
▁Высочество	-9166
▁разумеется	-9167
забо	-9168
▁позвонили	-9169
▁Ала	-9170
▁Роуз	-9171
▁наружу	-9172
▁прояс	-9173
▁Откройте	-9174
▁Хам	-9175
▁Шоу	-9176
▁преиму	-9177
▁программу	-9178
▁Вернись	-9179
бым	-9180
▁играешь	-9181
▁неожиданно	-9182
▁шампан	-9183
▁Учитель	-9184
нге	-9185
▁борту	-9186
▁Одну	-9187
▁начну	-9188
▁вои	-9189
разум	-9190
▁Короче	-9191
▁получает	-9192
▁развле	-9193
▁контакт	-9194
▁Более	-9195
▁выку	-9196
▁планеты	-9197
▁билеты	-9198
▁личность	-9199
▁столи	-9200
▁Чжэ	-9201
▁нахожу	-9202
мора	-9203
▁Золо	-9204
▁вмеша	-9205
▁благодарен	-9206
▁пальцы	-9207
▁говорится	-9208
▁Коул	-9209
▁враг	-9210
ряю	-9211
▁Нача	-9212
▁гений	-9213
▁Иду	-9214
чиков	-9215
▁наблюдать	-9216
▁народа	-9217
▁сереб	-9218
▁Садитесь	-9219
▁зама	-9220
▁творится	-9221
▁шпио	-9222
▁некуда	-9223
▁Земли	-9224
▁воскресенье	-9225
▁нече	-9226
▁предъ	-9227
▁взро	-9228
▁коктей	-9229
дились	-9230
▁доволь	-9231
▁появились	-9232
▁Лишь	-9233
▁Аминь	-9234
жья	-9235
шнит	-9236
▁напол	-9237
довой	-9238
ёй	-9239
▁пост	-9240
▁потен	-9241
телями	-9242
▁нала	-9243
ov	-9244
▁минимум	-9245
▁участие	-9246
вела	-9247
▁сторон	-9248
▁провела	-9249
▁Единственное	-9250
ющими	-9251
▁лицу	-9252
▁первые	-9253
даться	-9254
▁наблюдения	-9255
потреб	-9256
▁Кара	-9257
▁молит	-9258
▁усили	-9259
▁Эдвард	-9260
▁дея	-9261
▁Робер	-9262
▁Андре	-9263
▁выбрали	-9264
▁поды	-9265
тились	-9266
велись	-9267
▁пассажи	-9268
▁тратить	-9269
▁последнюю	-9270
▁доказательство	-9271
▁украли	-9272
▁Взгляни	-9273
ллин	-9274
пп	-9275
▁заклина	-9276
дишься	-9277
▁Девушка	-9278
стные	-9279
СЯ	-9280
▁Джеки	-9281
▁Богом	-9282
▁мотоци	-9283
▁последнего	-9284
▁поцелу	-9285
▁Договорились	-9286
▁ремон	-9287
чилось	-9288
▁проверил	-9289
▁отправили	-9290
▁оты	-9291
▁рожде	-9292
▁поиски	-9293
жкой	-9294
церт	-9295
▁дря	-9296
▁попробуем	-9297
▁платят	-9298
▁голоден	-9299
▁счастья	-9300
▁процентов	-9301
▁ухо	-9302
▁съез	-9303
▁собственный	-9304
▁Единственный	-9305
жье	-9306
▁аб	-9307
илась	-9308
▁заря	-9309
▁кожа	-9310
▁Благо	-9311
новятся	-9312
▁расстраи	-9313
▁плюс	-9314
рени	-9315
▁бейс	-9316
чься	-9317
▁Бин	-9318
▁обязаны	-9319
▁жар	-9320
▁нах	-9321
▁острове	-9322
зка	-9323
▁укры	-9324
▁индей	-9325
сное	-9326
▁плю	-9327
рились	-9328
▁включая	-9329
▁Ъ	-9330
ришь	-9331
▁компью	-9332
▁копы	-9333
▁начи	-9334
▁выта	-9335
▁Молли	-9336
▁неужели	-9337
▁мистером	-9338
▁уха	-9339
▁владель	-9340
▁Машина	-9341
▁шел	-9342
▁произойти	-9343
▁Мужчина	-9344
▁сообщ	-9345
▁обвиня	-9346
ub	-9347
▁квартира	-9348
▁немножко	-9349
гут	-9350
▁заходи	-9351
▁волнуюсь	-9352
▁умрёт	-9353
▁помогли	-9354
▁шоколад	-9355
▁задержа	-9356
▁корпора	-9357
▁выпьем	-9358
рых	-9359
▁Рез	-9360
▁роде	-9361
▁Марша	-9362
BF	-9363
▁Имя	-9364
дителя	-9365
▁прет	-9366
▁обман	-9367
▁охот	-9368
▁обожаю	-9369
▁просит	-9370
▁400	-9371
▁губерна	-9372
▁отключи	-9373
▁Мэт	-9374
▁шансы	-9375
бина	-9376
▁алиби	-9377
▁Лег	-9378
арт	-9379
стное	-9380
▁беспокойтесь	-9381
▁ага	-9382
▁лам	-9383
способ	-9384
▁плана	-9385
ans	-9386
▁исте	-9387
▁обнаружил	-9388
ломи	-9389
▁сплю	-9390
▁Нил	-9391
▁запро	-9392
▁Рой	-9393
раздел	-9394
▁бессмыс	-9395
▁цена	-9396
▁Бек	-9397
▁офици	-9398
▁положении	-9399
▁словам	-9400
▁сбежала	-9401
ллиан	-9402
▁риску	-9403
▁пытаясь	-9404
ляют	-9405
▁призем	-9406
▁кримина	-9407
делы	-9408
▁ядер	-9409
центри	-9410
▁напали	-9411
▁Нрави	-9412
▁цену	-9413
▁обычный	-9414
▁ужасный	-9415
▁Сом	-9416
▁Уин	-9417
▁приходят	-9418
▁Мишель	-9419
▁искала	-9420
▁Вовсе	-9421
▁страха	-9422
▁Цен	-9423
▁Около	-9424
▁пользоваться	-9425
▁продал	-9426
довали	-9427
▁Пода	-9428
▁яи	-9429
стика	-9430
▁телевизо	-9431
▁Полковник	-9432
▁Детка	-9433
новения	-9434
азель	-9435
▁сериале	-9436
хран	-9437
▁пригоди	-9438
▁Дик	-9439
FFFFFF	-9440
ватель	-9441
▁судеб	-9442
▁Никого	-9443
▁эгои	-9444
▁выбрала	-9445
▁ошибся	-9446
▁экзамен	-9447
бности	-9448
▁Америки	-9449
▁выбирать	-9450
▁помощник	-9451
▁Наверняка	-9452
▁улыб	-9453
▁помнить	-9454
▁ноч	-9455
▁получим	-9456
▁разочарова	-9457
▁строи	-9458
▁Готовы	-9459
▁страте	-9460
▁хороших	-9461
▁Безу	-9462
▁напоминает	-9463
▁хрен	-9464
▁Доброй	-9465
▁борт	-9466
▁Ян	-9467
ступает	-9468
▁Выходи	-9469
▁столом	-9470
▁импера	-9471
▁силах	-9472
▁Федера	-9473
▁рей	-9474
мости	-9475
▁надежды	-9476
▁умоляю	-9477
▁погибли	-9478
▁Джейм	-9479
▁ел	-9480
▁поработать	-9481
▁представление	-9482
рку	-9483
▁еврей	-9484
▁Использу	-9485
▁настоящим	-9486
▁Ред	-9487
▁анализ	-9488
▁важный	-9489
▁подружка	-9490
▁лиши	-9491
▁секунды	-9492
▁Бил	-9493
▁грубо	-9494
нного	-9495
рона	-9496
▁моти	-9497
▁сработало	-9498
▁благотвори	-9499
▁руковод	-9500
▁визит	-9501
▁налево	-9502
▁ужасное	-9503
ствовали	-9504
▁свадьбе	-9505
▁заговори	-9506
▁закончила	-9507
▁послушайте	-9508
дре	-9509
▁мр	-9510
▁шкаф	-9511
▁объясню	-9512
▁Мр	-9513
ust	-9514
▁продолжить	-9515
▁полная	-9516
▁исключи	-9517
веду	-9518
▁подходи	-9519
▁лидер	-9520
ственных	-9521
▁доктором	-9522
▁26	-9523
ссом	-9524
▁Патрик	-9525
▁Холо	-9526
▁крем	-9527
▁нанял	-9528
джет	-9529
▁раско	-9530
▁сердцем	-9531
чника	-9532
▁одиночестве	-9533
▁здании	-9534
▁Оставайся	-9535
▁чемнибудь	-9536
фет	-9537
▁защиту	-9538
▁ана	-9539
▁толку	-9540
▁слушайте	-9541
▁папу	-9542
▁отстав	-9543
рость	-9544
▁Барни	-9545
▁квартиры	-9546
еби	-9547
▁Отстань	-9548
маты	-9549
est	-9550
▁крити	-9551
▁Пошёл	-9552
фей	-9553
▁навы	-9554
шешь	-9555
▁изпод	-9556
▁вспомнил	-9557
▁приоб	-9558
▁общаться	-9559
▁Врем	-9560
▁привел	-9561
▁Ничто	-9562
▁чокну	-9563
родный	-9564
▁хранить	-9565
▁закончим	-9566
▁48	-9567
▁половина	-9568
▁пей	-9569
▁движение	-9570
гс	-9571
▁восхити	-9572
▁жарко	-9573
▁носит	-9574
▁величай	-9575
▁Сра	-9576
▁справишься	-9577
▁огромное	-9578
▁комму	-9579
▁звезда	-9580
леди	-9581
тное	-9582
▁чрезвычай	-9583
▁Викто	-9584
эндви	-9585
▁Превос	-9586
▁старший	-9587
▁свидетелей	-9588
▁попытка	-9589
▁Минутку	-9590
▁счастливой	-9591
▁председа	-9592
▁держа	-9593
▁косми	-9594
▁отпуска	-9595
▁выглядят	-9596
▁огромный	-9597
▁Жела	-9598
▁животное	-9599
14	-9600
▁Шин	-9601
▁оре	-9602
логии	-9603
▁Передай	-9604
▁for	-9605
жок	-9606
▁стакан	-9607
▁Малыш	-9608
▁приступ	-9609
▁32	-9610
▁беги	-9611
▁виски	-9612
▁сень	-9613
▁Были	-9614
▁подво	-9615
▁прислал	-9616
▁Нука	-9617
▁штат	-9618
▁слава	-9619
▁штуки	-9620
▁увидеться	-9621
ack	-9622
ятия	-9623
чайте	-9624
▁писал	-9625
▁сыграть	-9626
▁успел	-9627
▁Поверить	-9628
нача	-9629
▁машин	-9630
▁Директор	-9631
ане	-9632
▁Видел	-9633
▁выпла	-9634
▁нетер	-9635
леты	-9636
▁обещание	-9637
▁Лоу	-9638
жек	-9639
▁последним	-9640
▁раздели	-9641
▁похорон	-9642
телю	-9643
▁соеди	-9644
▁Принце	-9645
▁бить	-9646
▁Англии	-9647
▁беспокоюсь	-9648
oe	-9649
нском	-9650
▁второго	-9651
гули	-9652
нило	-9653
▁бомба	-9654
▁угол	-9655
▁поэ	-9656
▁полковник	-9657
▁понедельник	-9658
▁Вь	-9659
▁Слышишь	-9660
▁Дэви	-9661
▁отеля	-9662
up	-9663
кай	-9664
▁Гдето	-9665
▁устраивает	-9666
▁кора	-9667
▁восторге	-9668
▁нравлюсь	-9669
ОМ	-9670
17	-9671
пиши	-9672
▁курт	-9673
▁размер	-9674
▁198	-9675
▁самую	-9676
▁сучка	-9677
тис	-9678
дале	-9679
▁шею	-9680
▁степени	-9681
▁принц	-9682
чины	-9683
▁симп	-9684
гани	-9685
▁Коль	-9686
лите	-9687
▁Джексон	-9688
ленд	-9689
лнова	-9690
ббс	-9691
чете	-9692
стной	-9693
нор	-9694
▁доставить	-9695
▁найдет	-9696
▁большее	-9697
вёт	-9698
▁требуется	-9699
▁обслужи	-9700
▁звер	-9701
▁Милли	-9702
▁группе	-9703
глу	-9704
дира	-9705
▁прер	-9706
▁широ	-9707
▁Дэниел	-9708
▁стена	-9709
▁смотрели	-9710
деб	-9711
▁задача	-9712
аса	-9713
▁закона	-9714
▁бесплатно	-9715
▁вспы	-9716
▁Думал	-9717
▁пробе	-9718
▁Элисон	-9719
▁шансов	-9720
зку	-9721
▁объясняет	-9722
▁Кни	-9723
▁сознание	-9724
▁расстались	-9725
гнул	-9726
▁Обожаю	-9727
opo	-9728
▁следов	-9729
▁ею	-9730
▁ух	-9731
ОС	-9732
▁реги	-9733
▁сети	-9734
▁смотрят	-9735
▁агре	-9736
▁лето	-9737
▁свадьба	-9738
▁упала	-9739
▁Париже	-9740
паться	-9741
▁Кэрри	-9742
▁обвинение	-9743
▁1000	-9744
▁шла	-9745
▁вины	-9746
▁обеда	-9747
▁Деду	-9748
▁лошади	-9749
▁Шарлот	-9750
▁водитель	-9751
▁техни	-9752
▁тяжё	-9753
▁собаки	-9754
▁рассматри	-9755
had	-9756
▁Обы	-9757
▁красивые	-9758
▁относится	-9759
дятся	-9760
▁обер	-9761
▁звать	-9762
дик	-9763
▁добавить	-9764
▁зри	-9765
▁Друзья	-9766
▁парке	-9767
▁сошел	-9768
▁приняла	-9769
▁оставлять	-9770
▁ответа	-9771
▁Чё	-9772
▁остаётся	-9773
▁Поскольку	-9774
▁Дэни	-9775
ждён	-9776
▁гость	-9777
▁прослуши	-9778
▁постараюсь	-9779
▁дождаться	-9780
берг	-9781
▁Ита	-9782
▁воде	-9783
▁крутой	-9784
▁Никакой	-9785
▁спут	-9786
▁конфи	-9787
▁судить	-9788
▁Потрясаю	-9789
йм	-9790
лосо	-9791
стрен	-9792
▁Расскажите	-9793
тальян	-9794
▁определить	-9795
▁Кэролайн	-9796
уп	-9797
стрый	-9798
▁Речь	-9799
▁дружок	-9800
няк	-9801
▁родителями	-9802
▁продви	-9803
ходило	-9804
▁Дальше	-9805
▁Первая	-9806
ранда	-9807
▁Вместо	-9808
▁Вар	-9809
▁отмети	-9810
▁границы	-9811
▁доктору	-9812
▁Поняла	-9813
нению	-9814
▁фабри	-9815
▁199	-9816
▁руга	-9817
▁юриди	-9818
елё	-9819
▁насили	-9820
▁Кайл	-9821
▁правил	-9822
дови	-9823
лезай	-9824
▁тё	-9825
▁Хен	-9826
▁поя	-9827
▁позвони	-9828
▁духе	-9829
▁века	-9830
▁деви	-9831
▁Лондоне	-9832
цан	-9833
жную	-9834
летом	-9835
▁пациентов	-9836
▁армию	-9837
▁заставила	-9838
▁Йор	-9839
▁РЕ	-9840
▁бутылку	-9841
▁проверь	-9842
▁Город	-9843
▁куплю	-9844
▁Касл	-9845
▁контроля	-9846
зами	-9847
кера	-9848
▁класси	-9849
▁поужина	-9850
▁устройство	-9851
низм	-9852
▁цени	-9853
▁подняться	-9854
▁дьяво	-9855
▁граду	-9856
▁ровно	-9857
▁армия	-9858
▁следовать	-9859
дство	-9860
▁дис	-9861
▁друже	-9862
▁Хотела	-9863
жисс	-9864
берите	-9865
▁Мол	-9866
▁даёт	-9867
▁	-9868
о	-9869
е	-9870
а	-9871
т	-9872
н	-9873
и	-9874
с	-9875
р	-9876
л	-9877
в	-9878
м	-9879
д	-9880
к	-9881
у	-9882
п	-9883
ь	-9884
ы	-9885
я	-9886
б	-9887
ч	-9888
з	-9889
г	-9890
й	-9891
ж	-9892
ш	-9893
ю	-9894
х	-9895
э	-9896
Н	-9897
П	-9898
Я	-9899
Д	-9900
Т	-9901
В	-9902
О	-9903
М	-9904
С	-9905
ц	-9906
К	-9907
щ	-9908
ё	-9909
Э	-9910
И	-9911
А	-9912
Ч	-9913
Б	-9914
ф	-9915
У	-9916
Р	-9917
Х	-9918
Е	-9919
З	-9920
Л	-9921
Г	-9922
a	-9923
e	-9924
o	-9925
0	-9926
1	-9927
i	-9928
Ф	-9929
n	-9930
t	-9931
r	-9932
2	-9933
c	-9934
s	-9935
l	-9936
Ш	-9937
5	-9938
3	-9939
h	-9940
u	-9941
ъ	-9942
4	-9943
y	-9944
p	-9945
Ж	-9946
d	-9947
Ю	-9948
m	-9949
6	-9950
9	-9951
8	-9952
7	-9953
k	-9954
Й	-9955
f	-9956
g	-9957
F	-9958
H	-9959
b	-9960
Ц	-9961
w	-9962
A	-9963
I	-9964
S	-9965
C	-9966
T	-9967
x	-9968
v	-9969
M	-9970
B	-9971
O	-9972
Ь	-9973
D	-9974
Ё	-9975
E	-9976
Ы	-9977
P	-9978
L	-9979
N	-9980
R	-9981
Ъ	-9982
G	-9983
z	-9984
W	-9985
K	-9986
Щ	-9987
V	-9988
j	-9989
Y	-9990
J	-9991
U	-9992
X	-9993
Z	-9994
q	-9995
Q	-9996
